#include <cstdint>
#include <cstddef>
#include "BufAttributes.h"
static const uint8_t g_Model[] ALIGNMENT_ATTRIBUTE =  {
	0x20, 0x00, 0x00, 0x00, 0x54, 0x46, 0x4c, 0x33, 0x00, 0x00, 0x00, 0x00, 0x14, 0x00, 0x20, 0x00, 0x1c, 0x00, 0x18, 0x00, 
	0x14, 0x00, 0x10, 0x00, 0x0c, 0x00, 0x00, 0x00, 0x08, 0x00, 0x04, 0x00, 0x14, 0x00, 0x00, 0x00, 0x1c, 0x00, 0x00, 0x00, 
	0x88, 0x00, 0x00, 0x00, 0xe0, 0x00, 0x00, 0x00, 0x60, 0x10, 0x00, 0x00, 0x70, 0x10, 0x00, 0x00, 0x9c, 0x28, 0x00, 0x00, 
	0x03, 0x00, 0x00, 0x00, 0x01, 0x00, 0x00, 0x00, 0x04, 0x00, 0x00, 0x00, 0x32, 0xef, 0xff, 0xff, 0x0c, 0x00, 0x00, 0x00, 
	0x1c, 0x00, 0x00, 0x00, 0x38, 0x00, 0x00, 0x00, 0x0f, 0x00, 0x00, 0x00, 0x73, 0x65, 0x72, 0x76, 0x69, 0x6e, 0x67, 0x5f, 
	0x64, 0x65, 0x66, 0x61, 0x75, 0x6c, 0x74, 0x00, 0x01, 0x00, 0x00, 0x00, 0x04, 0x00, 0x00, 0x00, 0x94, 0xff, 0xff, 0xff, 
	0x17, 0x00, 0x00, 0x00, 0x04, 0x00, 0x00, 0x00, 0x07, 0x00, 0x00, 0x00, 0x64, 0x65, 0x6e, 0x73, 0x65, 0x5f, 0x37, 0x00, 
	0x01, 0x00, 0x00, 0x00, 0x04, 0x00, 0x00, 0x00, 0x3a, 0xef, 0xff, 0xff, 0x04, 0x00, 0x00, 0x00, 0x0e, 0x00, 0x00, 0x00, 
	0x63, 0x6f, 0x6e, 0x76, 0x32, 0x64, 0x5f, 0x38, 0x5f, 0x69, 0x6e, 0x70, 0x75, 0x74, 0x00, 0x00, 0x02, 0x00, 0x00, 0x00, 
	0x34, 0x00, 0x00, 0x00, 0x04, 0x00, 0x00, 0x00, 0xdc, 0xff, 0xff, 0xff, 0x1a, 0x00, 0x00, 0x00, 0x04, 0x00, 0x00, 0x00, 
	0x13, 0x00, 0x00, 0x00, 0x43, 0x4f, 0x4e, 0x56, 0x45, 0x52, 0x53, 0x49, 0x4f, 0x4e, 0x5f, 0x4d, 0x45, 0x54, 0x41, 0x44, 
	0x41, 0x54, 0x41, 0x00, 0x08, 0x00, 0x0c, 0x00, 0x08, 0x00, 0x04, 0x00, 0x08, 0x00, 0x00, 0x00, 0x19, 0x00, 0x00, 0x00, 
	0x04, 0x00, 0x00, 0x00, 0x13, 0x00, 0x00, 0x00, 0x6d, 0x69, 0x6e, 0x5f, 0x72, 0x75, 0x6e, 0x74, 0x69, 0x6d, 0x65, 0x5f, 
	0x76, 0x65, 0x72, 0x73, 0x69, 0x6f, 0x6e, 0x00, 0x1b, 0x00, 0x00, 0x00, 0x7c, 0x0f, 0x00, 0x00, 0x74, 0x0f, 0x00, 0x00, 
	0x5c, 0x0f, 0x00, 0x00, 0xec, 0x0e, 0x00, 0x00, 0xbc, 0x0e, 0x00, 0x00, 0xac, 0x0c, 0x00, 0x00, 0x5c, 0x0c, 0x00, 0x00, 
	0x4c, 0x04, 0x00, 0x00, 0xbc, 0x03, 0x00, 0x00, 0xac, 0x01, 0x00, 0x00, 0x5c, 0x01, 0x00, 0x00, 0x0c, 0x01, 0x00, 0x00, 
	0xec, 0x00, 0x00, 0x00, 0xe4, 0x00, 0x00, 0x00, 0xdc, 0x00, 0x00, 0x00, 0xd4, 0x00, 0x00, 0x00, 0xcc, 0x00, 0x00, 0x00, 
	0xc4, 0x00, 0x00, 0x00, 0xbc, 0x00, 0x00, 0x00, 0xb4, 0x00, 0x00, 0x00, 0xac, 0x00, 0x00, 0x00, 0xa4, 0x00, 0x00, 0x00, 
	0x9c, 0x00, 0x00, 0x00, 0x94, 0x00, 0x00, 0x00, 0x8c, 0x00, 0x00, 0x00, 0x6c, 0x00, 0x00, 0x00, 0x04, 0x00, 0x00, 0x00, 
	0x22, 0xf0, 0xff, 0xff, 0x04, 0x00, 0x00, 0x00, 0x58, 0x00, 0x00, 0x00, 0x0c, 0x00, 0x00, 0x00, 0x08, 0x00, 0x0e, 0x00, 
	0x08, 0x00, 0x04, 0x00, 0x08, 0x00, 0x00, 0x00, 0x10, 0x00, 0x00, 0x00, 0x28, 0x00, 0x00, 0x00, 0x00, 0x00, 0x06, 0x00, 
	0x08, 0x00, 0x04, 0x00, 0x06, 0x00, 0x00, 0x00, 0x04, 0x00, 0x00, 0x00, 0x01, 0x00, 0x00, 0x00, 0xeb, 0x03, 0x00, 0x00, 
	0x00, 0x00, 0x0a, 0x00, 0x10, 0x00, 0x0c, 0x00, 0x08, 0x00, 0x04, 0x00, 0x0a, 0x00, 0x00, 0x00, 0x02, 0x00, 0x00, 0x00, 
	0x02, 0x00, 0x00, 0x00, 0x04, 0x00, 0x00, 0x00, 0x05, 0x00, 0x00, 0x00, 0x32, 0x2e, 0x39, 0x2e, 0x31, 0x00, 0x00, 0x00, 
	0x86, 0xf0, 0xff, 0xff, 0x04, 0x00, 0x00, 0x00, 0x10, 0x00, 0x00, 0x00, 0x31, 0x2e, 0x31, 0x34, 0x2e, 0x30, 0x00, 0x00, 
	0x00, 0x00, 0x00, 0x00, 0x00, 0x00, 0x00, 0x00, 0x6c, 0xd9, 0xff, 0xff, 0x70, 0xd9, 0xff, 0xff, 0x74, 0xd9, 0xff, 0xff, 
	0x78, 0xd9, 0xff, 0xff, 0x7c, 0xd9, 0xff, 0xff, 0x80, 0xd9, 0xff, 0xff, 0x84, 0xd9, 0xff, 0xff, 0x88, 0xd9, 0xff, 0xff, 
	0x8c, 0xd9, 0xff, 0xff, 0x90, 0xd9, 0xff, 0xff, 0x94, 0xd9, 0xff, 0xff, 0x98, 0xd9, 0xff, 0xff, 0xd2, 0xf0, 0xff, 0xff, 
	0x04, 0x00, 0x00, 0x00, 0x10, 0x00, 0x00, 0x00, 0x59, 0x00, 0x00, 0x00, 0x0e, 0x01, 0x00, 0x00, 0x9e, 0x00, 0x00, 0x00, 
	0x76, 0xfe, 0xff, 0xff, 0xee, 0xf0, 0xff, 0xff, 0x04, 0x00, 0x00, 0x00, 0x40, 0x00, 0x00, 0x00, 0x07, 0xb5, 0xa7, 0xb8, 
	0x9b, 0xbc, 0x25, 0x21, 0xd8, 0x3d, 0xaa, 0x47, 0xa8, 0xf9, 0xd2, 0x81, 0xd8, 0xc8, 0xc6, 0xd4, 0xee, 0x40, 0x8b, 0x05, 
	0xdd, 0xaf, 0xb3, 0xd1, 0xc0, 0x38, 0xb6, 0x39, 0xe8, 0xb4, 0x50, 0xb5, 0x48, 0x10, 0x1c, 0xe3, 0xad, 0xf4, 0xae, 0x9b, 
	0xd2, 0xa1, 0xae, 0xbb, 0xf0, 0x56, 0xfc, 0x45, 0xfd, 0xcd, 0x08, 0xdc, 0x6e, 0xd5, 0x4d, 0xfb, 0x69, 0x24, 0x69, 0x0d, 
	0x3a, 0xf1, 0xff, 0xff, 0x04, 0x00, 0x00, 0x00, 0x40, 0x00, 0x00, 0x00, 0x79, 0xfc, 0xff, 0xff, 0xdd, 0x06, 0x00, 0x00, 
	0xb3, 0x05, 0x00, 0x00, 0x90, 0x05, 0x00, 0x00, 0x4c, 0x05, 0x00, 0x00, 0x53, 0x00, 0x00, 0x00, 0xb2, 0x0c, 0x00, 0x00, 
	0x91, 0xfc, 0xff, 0xff, 0xd1, 0x08, 0x00, 0x00, 0xe0, 0x01, 0x00, 0x00, 0x2c, 0x02, 0x00, 0x00, 0xb9, 0x02, 0x00, 0x00, 
	0xe6, 0xfe, 0xff, 0xff, 0xfd, 0xfc, 0xff, 0xff, 0x4c, 0x05, 0x00, 0x00, 0xeb, 0x05, 0x00, 0x00, 0x86, 0xf1, 0xff, 0xff, 
	0x04, 0x00, 0x00, 0x00, 0x00, 0x02, 0x00, 0x00, 0xfa, 0xdf, 0xe2, 0xfd, 0xe2, 0x0f, 0x03, 0xd7, 0xdd, 0xe4, 0x18, 0xdb, 
	0x06, 0xfb, 0x17, 0x02, 0xef, 0x1c, 0xed, 0x11, 0xf2, 0xe6, 0xe8, 0xe9, 0xdc, 0xff, 0xe7, 0xdf, 0xde, 0x06, 0xf6, 0xf1, 
	0x07, 0xe2, 0x30, 0xcf, 0xfb, 0xf6, 0xc0, 0xd7, 0xf0, 0xc5, 0xa1, 0xc6, 0x2c, 0xe2, 0xbf, 0xc1, 0xd7, 0xc6, 0xc4, 0xe4, 
	0xf0, 0x3d, 0xf8, 0x3e, 0xe3, 0x1b, 0x06, 0xdf, 0x01, 0x10, 0x13, 0x94, 0x08, 0x0f, 0x0d, 0x09, 0x15, 0xe7, 0xea, 0x1c, 
	0xdd, 0x07, 0x08, 0x97, 0xb6, 0x9c, 0x28, 0x23, 0x23, 0x1b, 0x0b, 0xbf, 0x1d, 0xce, 0x11, 0x00, 0xb9, 0x94, 0x0c, 0x0c, 
	0xec, 0xfd, 0x2c, 0xfd, 0xcc, 0xb9, 0x2f, 0x12, 0x0d, 0x18, 0xbd, 0x11, 0x09, 0xd6, 0x99, 0x16, 0x1a, 0xef, 0x1a, 0x09, 
	0x0e, 0xd6, 0xad, 0xe3, 0x12, 0x3d, 0x11, 0x1a, 0xe9, 0x01, 0xb7, 0xc6, 0x05, 0xa0, 0x0f, 0x96, 0x04, 0xfa, 0x29, 0x1d, 
	0x40, 0x11, 0xad, 0x0a, 0x08, 0xbb, 0x07, 0xa9, 0xec, 0xa7, 0x1e, 0x37, 0x02, 0x22, 0x06, 0xb7, 0x20, 0x08, 0x0d, 0x16, 
	0xc3, 0xde, 0x09, 0xfa, 0xc3, 0x18, 0x13, 0x0f, 0x15, 0x0a, 0x18, 0x55, 0x1e, 0xef, 0xf9, 0xfe, 0xd2, 0x01, 0x09, 0x15, 
	0x0b, 0xfd, 0x44, 0xee, 0xeb, 0xcd, 0xee, 0xeb, 0x40, 0xe9, 0x00, 0xe3, 0xde, 0x17, 0x0e, 0x02, 0x17, 0x13, 0xda, 0xfe, 
	0xfa, 0x0a, 0xd8, 0xbf, 0xcc, 0x49, 0x09, 0x5e, 0x1f, 0x0b, 0x09, 0xec, 0xf6, 0x00, 0xdd, 0x04, 0x3a, 0x2d, 0x1e, 0xfc, 
	0xd7, 0xe7, 0x46, 0x13, 0x12, 0xe8, 0xfe, 0x13, 0x98, 0x0b, 0x2e, 0x0a, 0x11, 0xf8, 0xf4, 0xea, 0x0e, 0xf4, 0x12, 0xec, 
	0x06, 0xf2, 0xe4, 0xfa, 0x07, 0xfe, 0x14, 0xef, 0x17, 0x05, 0xdd, 0x13, 0xd9, 0xfa, 0xd2, 0xea, 0xe2, 0xed, 0xd9, 0x02, 
	0xec, 0xf2, 0xfa, 0xf0, 0xc9, 0xf0, 0xb5, 0xf7, 0xf3, 0xe6, 0x19, 0x17, 0x06, 0x06, 0x12, 0x21, 0xb0, 0x27, 0x07, 0x28, 
	0xfa, 0x17, 0x0d, 0x14, 0xf2, 0xce, 0xf9, 0xb1, 0x0c, 0xc6, 0x93, 0xfb, 0xf6, 0x8d, 0xaf, 0x1a, 0x02, 0x00, 0xe5, 0xcc, 
	0x8f, 0x33, 0x12, 0x2d, 0x34, 0x02, 0xe7, 0x16, 0x1d, 0x0f, 0xc7, 0xbb, 0x39, 0x1b, 0xf7, 0x02, 0xae, 0xdc, 0x37, 0xf8, 
	0x1d, 0x15, 0x13, 0xf8, 0xc7, 0x10, 0x18, 0xf1, 0xbf, 0x99, 0x1f, 0x1f, 0x07, 0x1d, 0xd1, 0xff, 0x0c, 0xba, 0xba, 0x15, 
	0xfe, 0xf7, 0x1f, 0x1a, 0x11, 0x1e, 0x9d, 0x17, 0x1f, 0x20, 0x16, 0xe3, 0x08, 0x11, 0xa7, 0x83, 0xfc, 0xbd, 0xe8, 0xd2, 
	0xf7, 0x07, 0xf4, 0xca, 0x99, 0x2e, 0x05, 0x14, 0x37, 0x18, 0xee, 0x2c, 0x2d, 0x0d, 0xa7, 0xc2, 0x12, 0x04, 0x02, 0x1e, 
	0xa4, 0xfd, 0x15, 0x0d, 0x35, 0x1a, 0xf6, 0xf9, 0xc7, 0x02, 0x0d, 0xe9, 0xd1, 0xa7, 0xf5, 0x1b, 0x1f, 0x14, 0xdc, 0x00, 
	0x17, 0xd2, 0xbd, 0x17, 0xe8, 0x14, 0x14, 0x16, 0x14, 0x16, 0xb4, 0x0d, 0x19, 0x03, 0x0b, 0x97, 0xf3, 0x15, 0x99, 0x99, 
	0x24, 0xc1, 0xef, 0xf8, 0xfd, 0x05, 0x28, 0x08, 0xf9, 0xba, 0x13, 0x86, 0xcd, 0x22, 0x0a, 0x42, 0x39, 0x24, 0x01, 0xda, 
	0x81, 0xe5, 0x12, 0x43, 0xf1, 0x2f, 0x93, 0x0a, 0x17, 0x50, 0x07, 0x13, 0x28, 0x11, 0xd2, 0x00, 0xd5, 0x99, 0x20, 0x0f, 
	0x1b, 0x14, 0xc8, 0x17, 0x0a, 0xc9, 0xa5, 0xfd, 0x12, 0x17, 0xf6, 0x19, 0x0f, 0xfc, 0x8f, 0xfa, 0xf4, 0x1e, 0x0e, 0x02, 
	0x01, 0xfe, 0x94, 0xbe, 0x1e, 0xa8, 0x09, 0xb1, 0x0d, 0x06, 0x38, 0x2a, 0x11, 0xaa, 0x0c, 0x82, 0xb2, 0x25, 0x06, 0x12, 
	0x20, 0x0a, 0x23, 0xc4, 0x8f, 0xb1, 0xf9, 0x07, 0x30, 0x2a, 0x99, 0xf2, 0xea, 0x0a, 0xec, 0x06, 0x59, 0xeb, 0xef, 0x0e, 
	0x92, 0xf3, 0xff, 0xff, 0x04, 0x00, 0x00, 0x00, 0x80, 0x00, 0x00, 0x00, 0x03, 0xc9, 0xff, 0xff, 0xe8, 0x9d, 0xff, 0xff, 
	0x80, 0x0b, 0x00, 0x00, 0xdc, 0xf7, 0xff, 0xff, 0x20, 0xea, 0xff, 0xff, 0x5e, 0xd3, 0xff, 0xff, 0xb6, 0xc9, 0xff, 0xff, 
	0x10, 0xc4, 0xff, 0xff, 0xc3, 0xdd, 0xff, 0xff, 0xc6, 0xb8, 0xff, 0xff, 0x0b, 0xca, 0xff, 0xff, 0x5f, 0x06, 0x00, 0x00, 
	0xe5, 0x0c, 0x00, 0x00, 0x4e, 0x16, 0x00, 0x00, 0x21, 0xed, 0xff, 0xff, 0xbf, 0xc9, 0xff, 0xff, 0x70, 0xdb, 0xff, 0xff, 
	0x00, 0xfa, 0xff, 0xff, 0x9e, 0xd2, 0xff, 0xff, 0xa2, 0xe5, 0xff, 0xff, 0x5f, 0xf0, 0xff, 0xff, 0xae, 0xfd, 0xff, 0xff, 
	0xc9, 0xd0, 0xff, 0xff, 0x42, 0xee, 0xff, 0xff, 0xb6, 0xee, 0xff, 0xff, 0xfd, 0x05, 0x00, 0x00, 0x99, 0xc3, 0xff, 0xff, 
	0x93, 0xdc, 0xff, 0xff, 0xda, 0x00, 0x00, 0x00, 0x69, 0xcc, 0xff, 0xff, 0x26, 0xd8, 0xff, 0xff, 0x5d, 0xc5, 0xff, 0xff, 
	0x1e, 0xf4, 0xff, 0xff, 0x04, 0x00, 0x00, 0x00, 0x00, 0x08, 0x00, 0x00, 0x08, 0xfd, 0xd5, 0xe4, 0xed, 0x4a, 0x29, 0x1b, 
	0xff, 0x37, 0x7f, 0xf9, 0x11, 0x1c, 0x2a, 0xf6, 0x08, 0xb9, 0xbd, 0x33, 0xff, 0x0f, 0x38, 0x3e, 0xcc, 0x17, 0x2c, 0x23, 
	0x4c, 0x98, 0x0d, 0x12, 0x12, 0xb8, 0xb1, 0x2b, 0x1c, 0x22, 0x01, 0x21, 0xcf, 0xd2, 0x0b, 0x15, 0x3d, 0xd1, 0xfc, 0x23, 
	0xf6, 0xdf, 0xb8, 0x09, 0x28, 0x07, 0xf9, 0x3b, 0xe8, 0xc5, 0xe7, 0x09, 0x22, 0xef, 0x2b, 0x06, 0x0e, 0x32, 0xc4, 0x37, 
	0x3c, 0xcd, 0x10, 0x0a, 0xc4, 0x06, 0xce, 0x7f, 0x6e, 0xf4, 0x17, 0x12, 0xfc, 0x0c, 0xcb, 0xea, 0x09, 0x16, 0xce, 0x24, 
	0x25, 0x0e, 0x3e, 0xf9, 0x0e, 0x18, 0x62, 0x45, 0x16, 0xdf, 0xca, 0xfa, 0x14, 0x32, 0x14, 0x2e, 0x4c, 0x0e, 0x57, 0xcd, 
	0xf4, 0x39, 0x35, 0x4a, 0xee, 0xb2, 0xe0, 0x14, 0x02, 0x77, 0x65, 0x6d, 0x3e, 0x08, 0x52, 0xbe, 0x07, 0x0f, 0x3f, 0x5a, 
	0xf2, 0xff, 0x0d, 0x29, 0xd8, 0x3a, 0x09, 0x2e, 0x09, 0x81, 0xdd, 0xe8, 0x2a, 0xc4, 0xeb, 0xca, 0x0a, 0xf8, 0x23, 0x24, 
	0x07, 0xd1, 0xe3, 0xfb, 0xe4, 0x8a, 0xba, 0xee, 0xf7, 0xce, 0xd0, 0xcb, 0x03, 0x08, 0x17, 0x36, 0x1e, 0xcf, 0x03, 0x08, 
	0x0b, 0xc3, 0xde, 0x36, 0x2d, 0xe3, 0xdb, 0xca, 0x20, 0x17, 0x11, 0x2c, 0x19, 0xe4, 0x0a, 0xe1, 0xec, 0xcb, 0x29, 0x15, 
	0x04, 0xdf, 0xac, 0xc2, 0x29, 0x27, 0x06, 0x26, 0x07, 0xae, 0x13, 0xcf, 0x06, 0x00, 0xdc, 0x19, 0x1e, 0xee, 0xdd, 0xb9, 
	0x35, 0x17, 0x0a, 0x23, 0xfe, 0xcb, 0x0e, 0xbf, 0x0b, 0x0a, 0xe0, 0x05, 0xfa, 0xf2, 0xc7, 0xbb, 0x35, 0x12, 0x1f, 0xfc, 
	0xec, 0x17, 0x19, 0xd2, 0x2c, 0x1e, 0x7f, 0xfa, 0xe6, 0xf6, 0xd2, 0x10, 0xfd, 0xf6, 0x29, 0x02, 0xeb, 0x20, 0xe2, 0xde, 
	0x1f, 0xf7, 0x09, 0xef, 0xeb, 0xf3, 0xf2, 0x16, 0x0b, 0xf8, 0x12, 0x23, 0xe7, 0x38, 0x11, 0x15, 0xde, 0xcd, 0xa3, 0xd4, 
	0x21, 0x1f, 0xfe, 0x86, 0xff, 0x16, 0x11, 0x39, 0x02, 0xe8, 0x1f, 0xf6, 0x01, 0x1b, 0xc2, 0x07, 0x14, 0xff, 0xea, 0xb8, 
	0x2a, 0x15, 0x1a, 0x41, 0x16, 0xc4, 0x0e, 0xfd, 0x10, 0x1e, 0x05, 0x00, 0x20, 0xe9, 0xe0, 0xb5, 0x46, 0x2c, 0xdf, 0x23, 
	0xf4, 0xde, 0x1c, 0xe2, 0x1d, 0xf5, 0x7f, 0xff, 0x0c, 0xe7, 0xb4, 0xe6, 0x79, 0xd9, 0x3b, 0xcb, 0x59, 0x06, 0xbd, 0xe4, 
	0x0d, 0x4a, 0x43, 0x1d, 0xc8, 0xdb, 0xfc, 0x6e, 0x5f, 0xf1, 0x05, 0xb7, 0xf0, 0xcc, 0x81, 0xe3, 0xd2, 0x57, 0x24, 0x2c, 
	0xf6, 0xe9, 0x1d, 0x23, 0x15, 0x39, 0x05, 0xe3, 0x1e, 0xcc, 0xa5, 0xef, 0xce, 0x24, 0x0e, 0x3c, 0x2e, 0x0b, 0x24, 0x17, 
	0x23, 0xc6, 0x00, 0x30, 0x29, 0xe1, 0xd5, 0x01, 0xa6, 0xe3, 0xdf, 0x0d, 0x1f, 0x03, 0xfb, 0xf4, 0xe9, 0xdb, 0x17, 0x31, 
	0xed, 0x5e, 0x0d, 0x2d, 0x53, 0xc9, 0x48, 0x0e, 0xb6, 0x01, 0xf8, 0x68, 0xff, 0xc6, 0xf4, 0x0a, 0xfb, 0x1d, 0xe2, 0x1b, 
	0x42, 0xda, 0x7b, 0xf4, 0x81, 0x06, 0xd5, 0x50, 0xf1, 0xd6, 0x0f, 0xfc, 0x02, 0x2e, 0xf4, 0x14, 0x11, 0xe8, 0xfb, 0x2c, 
	0xb9, 0xef, 0xeb, 0x4a, 0x02, 0xf8, 0x2f, 0x1e, 0x28, 0x2f, 0xfb, 0x24, 0xca, 0x37, 0xcb, 0x59, 0x21, 0xdd, 0xf4, 0x73, 
	0x7f, 0xe9, 0xf1, 0x0f, 0xf2, 0x00, 0x16, 0x0f, 0x11, 0x43, 0x27, 0xd7, 0x04, 0x01, 0xe7, 0x35, 0x7f, 0x19, 0xfb, 0xfb, 
	0xfd, 0xff, 0xed, 0x02, 0x0c, 0x6d, 0x27, 0xdc, 0xed, 0x23, 0x09, 0x2b, 0x3b, 0x4a, 0x0c, 0xf2, 0x02, 0xf7, 0xda, 0x07, 
	0xec, 0x30, 0x13, 0x01, 0x07, 0x21, 0x05, 0x13, 0x34, 0x19, 0xfc, 0x0d, 0x3c, 0xe0, 0xca, 0xdd, 0xcf, 0x31, 0xdf, 0x11, 
	0x07, 0xed, 0xf3, 0x07, 0x41, 0xd5, 0x11, 0x29, 0x31, 0x1e, 0xd1, 0xe8, 0x07, 0x67, 0x1c, 0x04, 0xc5, 0x3a, 0xf6, 0x5a, 
	0x4a, 0xee, 0xf8, 0x18, 0x20, 0xf6, 0xd7, 0xe9, 0xbf, 0x4a, 0x0b, 0x09, 0xf2, 0x22, 0x16, 0x16, 0x05, 0x1f, 0x0c, 0x1e, 
	0xec, 0xd9, 0xe9, 0xe6, 0xa3, 0x3d, 0x04, 0x29, 0x18, 0x0d, 0x0b, 0x14, 0x1c, 0xf8, 0xf4, 0x27, 0x26, 0xc6, 0xff, 0xf2, 
	0x81, 0xfa, 0xf0, 0x0d, 0x28, 0x00, 0x23, 0xe4, 0x0d, 0x3f, 0xd3, 0x4d, 0x48, 0x04, 0xe8, 0xec, 0x39, 0xbd, 0xf3, 0x7e, 
	0x0f, 0xd0, 0xff, 0xd4, 0xf3, 0x08, 0xea, 0x0e, 0xf1, 0x52, 0xcc, 0x1d, 0x74, 0xbb, 0x35, 0x15, 0xd2, 0x14, 0xf4, 0x47, 
	0x13, 0xf6, 0x22, 0x05, 0xfd, 0x51, 0xb1, 0x0b, 0x34, 0xac, 0x4c, 0x11, 0x8f, 0xc9, 0xa9, 0x7f, 0x15, 0x8f, 0x25, 0x25, 
	0xef, 0x61, 0xe0, 0x29, 0x40, 0xeb, 0x43, 0xfb, 0x90, 0xaf, 0x9e, 0x7b, 0x24, 0x5f, 0xfc, 0x2a, 0x26, 0xf4, 0x0f, 0xd7, 
	0x2a, 0x19, 0xf9, 0x4d, 0xc8, 0xd9, 0xda, 0x5d, 0x0d, 0xdf, 0xd6, 0x00, 0xf6, 0x1a, 0x20, 0x1c, 0x27, 0x07, 0x5d, 0xe0, 
	0xf7, 0x0e, 0xf2, 0x68, 0xe8, 0xe9, 0xfb, 0x06, 0xf3, 0x47, 0xfb, 0x0f, 0xec, 0xdc, 0x05, 0xd5, 0xea, 0xec, 0xec, 0x4a, 
	0xd9, 0xd6, 0xe4, 0x26, 0xea, 0x3f, 0x40, 0x50, 0xe9, 0xde, 0xf3, 0xe0, 0x45, 0x05, 0x4c, 0x7f, 0xd9, 0xd6, 0x2a, 0x2b, 
	0x42, 0xd9, 0x04, 0xed, 0xfa, 0xa3, 0x47, 0x68, 0xf0, 0x17, 0x05, 0x8d, 0xe8, 0xd7, 0xfc, 0x17, 0x3f, 0xf0, 0xec, 0xf7, 
	0x0e, 0x9f, 0x0a, 0x3b, 0xcd, 0x1e, 0xfb, 0xd1, 0xf6, 0xb3, 0x1d, 0x08, 0xf2, 0xfb, 0xc8, 0xfa, 0x16, 0x96, 0x45, 0x02, 
	0xbc, 0x28, 0x01, 0x1f, 0xfe, 0xa5, 0x2a, 0xf1, 0xe0, 0x01, 0xea, 0xd3, 0xe8, 0xbb, 0x7f, 0x20, 0xad, 0xf0, 0xc6, 0x05, 
	0x19, 0xe2, 0xef, 0x26, 0x23, 0xd7, 0xe5, 0x01, 0xda, 0xd3, 0xd5, 0x24, 0x1c, 0xcc, 0xf7, 0xf1, 0x13, 0xff, 0xf1, 0x33, 
	0x1e, 0xbf, 0xe7, 0xe4, 0xe0, 0xc4, 0xd9, 0x13, 0x26, 0xd5, 0x0b, 0xa0, 0xf1, 0x12, 0xf6, 0x05, 0xf9, 0xe8, 0xe5, 0x0a, 
	0x46, 0x9c, 0x11, 0x51, 0x21, 0xe8, 0x1b, 0xc4, 0xdb, 0xea, 0x11, 0xf5, 0xcf, 0xeb, 0xc9, 0xfa, 0x34, 0x81, 0x20, 0x35, 
	0xe2, 0xdf, 0xee, 0xd9, 0xd4, 0xcc, 0x2b, 0xfd, 0x2c, 0x01, 0x10, 0xfa, 0x05, 0xaa, 0x0e, 0x48, 0xd1, 0x13, 0x15, 0xec, 
	0xe4, 0x99, 0xf2, 0x24, 0x29, 0xe0, 0xe8, 0xf4, 0x2e, 0x8c, 0x22, 0x30, 0xa4, 0x29, 0x14, 0xcf, 0xfc, 0x81, 0x33, 0x30, 
	0x38, 0x1d, 0xfc, 0xf4, 0x38, 0xcd, 0x60, 0x25, 0x91, 0xfa, 0xf2, 0x05, 0xdc, 0x94, 0x4b, 0xc5, 0xd7, 0x01, 0x15, 0xe8, 
	0xf1, 0xf1, 0x4b, 0x10, 0xa7, 0xc3, 0xe1, 0x29, 0x14, 0x40, 0x14, 0x47, 0xed, 0xb5, 0x70, 0xe7, 0x0b, 0x10, 0xb8, 0x0d, 
	0x34, 0x03, 0xfc, 0xae, 0x24, 0x2d, 0x27, 0x0f, 0xf6, 0x81, 0x07, 0xa8, 0x05, 0x29, 0xcf, 0x0e, 0xf7, 0xf7, 0xcb, 0xc6, 
	0x6a, 0x22, 0x24, 0x1f, 0xf5, 0xd3, 0x10, 0xad, 0x13, 0x33, 0x6c, 0xf5, 0xd2, 0xf4, 0xce, 0x03, 0x15, 0xf9, 0x2a, 0x04, 
	0xdd, 0x1e, 0xfb, 0xcb, 0x52, 0xd4, 0x5e, 0xe1, 0xed, 0x01, 0xe7, 0x45, 0x5a, 0x36, 0x76, 0x44, 0xed, 0xeb, 0x3c, 0x20, 
	0x04, 0x30, 0xf2, 0xea, 0x1d, 0x56, 0x1c, 0x81, 0x1e, 0x4d, 0x43, 0x16, 0x01, 0x05, 0xee, 0x02, 0xf1, 0x3c, 0x10, 0xcf, 
	0x12, 0xd6, 0x08, 0xe7, 0x54, 0x7f, 0x15, 0x07, 0xb8, 0xd6, 0x34, 0xf6, 0xde, 0x09, 0x1b, 0xaa, 0x09, 0x57, 0x0b, 0xf2, 
	0x28, 0x67, 0x06, 0x16, 0xb9, 0xcc, 0x29, 0xe6, 0xbd, 0x0f, 0xe6, 0xae, 0xfa, 0xf3, 0x05, 0xe1, 0x7f, 0xe7, 0x0f, 0x1c, 
	0xfe, 0x1d, 0xfb, 0x01, 0xf4, 0x32, 0x18, 0xe0, 0xe9, 0xf5, 0xf5, 0x34, 0x54, 0x49, 0x03, 0x1e, 0xfe, 0xfc, 0xeb, 0xf6, 
	0xe3, 0x43, 0x1a, 0x02, 0xf1, 0x1b, 0x11, 0x38, 0x0f, 0x16, 0xf1, 0xf7, 0x01, 0xe1, 0xde, 0xf0, 0xc0, 0x1a, 0xfe, 0x03, 
	0x09, 0x0c, 0xf6, 0x0d, 0x27, 0x10, 0xf0, 0x1d, 0x3b, 0xd9, 0xf6, 0xda, 0xd4, 0x1a, 0xea, 0x01, 0x08, 0x06, 0xee, 0x18, 
	0xde, 0xaf, 0x57, 0x19, 0x0c, 0x09, 0x09, 0x2b, 0xe9, 0xcd, 0x02, 0x09, 0xf6, 0x5b, 0x21, 0xce, 0x38, 0xc6, 0x33, 0x00, 
	0x1b, 0x11, 0x00, 0xe3, 0xd8, 0xb9, 0x0e, 0xe7, 0xd9, 0x2c, 0x4a, 0xdc, 0x53, 0x12, 0x15, 0xd3, 0x0e, 0xe4, 0xf4, 0xe7, 
	0xea, 0x4f, 0xf5, 0xc4, 0xcc, 0x31, 0x1d, 0xcc, 0x36, 0x49, 0x23, 0xa3, 0xcc, 0x0c, 0x0b, 0x0c, 0xe6, 0x54, 0xf4, 0x97, 
	0xb6, 0x7f, 0x07, 0xcb, 0xdf, 0xdf, 0xd6, 0x38, 0x02, 0x21, 0x1c, 0x7f, 0x1f, 0xd4, 0x1a, 0x44, 0x0f, 0x06, 0x00, 0x65, 
	0xe7, 0xf5, 0xc6, 0x20, 0xfd, 0x30, 0x0b, 0x33, 0x3d, 0xc4, 0x35, 0x09, 0x14, 0xfd, 0x20, 0x5a, 0xf8, 0x42, 0xd6, 0xe6, 
	0xf4, 0x2a, 0xc5, 0xd2, 0x00, 0x2b, 0xe7, 0xfc, 0x94, 0x27, 0xe5, 0x07, 0xef, 0x53, 0x4e, 0xc3, 0xe8, 0x1c, 0xc2, 0xd9, 
	0x05, 0x7d, 0x1c, 0xf0, 0x99, 0x32, 0x42, 0x40, 0xc9, 0x9f, 0x2c, 0x0b, 0xfa, 0x04, 0x0a, 0x31, 0x2c, 0x9e, 0x7f, 0xf3, 
	0xe5, 0x06, 0x26, 0x6e, 0x04, 0xa5, 0x24, 0x0b, 0xf0, 0xf9, 0xf0, 0xf6, 0xee, 0xc2, 0xf9, 0x2d, 0xe6, 0x0a, 0x0e, 0xff, 
	0xe6, 0xb9, 0x2d, 0x33, 0x10, 0xf9, 0x12, 0xfd, 0xed, 0xf4, 0x60, 0x43, 0xf1, 0x1d, 0xf7, 0x0b, 0xdc, 0xd8, 0x43, 0x29, 
	0x60, 0xf1, 0x13, 0xcd, 0x33, 0xdf, 0xd5, 0x52, 0xd9, 0xdc, 0xe9, 0x04, 0xfc, 0xf2, 0x0f, 0x1e, 0xfd, 0xe1, 0x4a, 0x16, 
	0xec, 0xd2, 0xbe, 0xf2, 0x23, 0xf8, 0xf6, 0xc1, 0x1d, 0x2a, 0x0e, 0x0b, 0x0f, 0xac, 0x0f, 0xce, 0xeb, 0x20, 0xe3, 0x14, 
	0xfc, 0xec, 0xe0, 0xd6, 0x32, 0x14, 0x38, 0x12, 0xfa, 0xc9, 0x22, 0xca, 0x12, 0x06, 0x18, 0x06, 0x04, 0xfd, 0xde, 0xe6, 
	0x46, 0x0d, 0xfd, 0x0b, 0xec, 0xef, 0x14, 0xca, 0x3b, 0xf7, 0x7f, 0xfd, 0xf8, 0xf4, 0xc8, 0x13, 0x3d, 0x03, 0x2f, 0x3d, 
	0x0b, 0x20, 0x03, 0x28, 0x38, 0x81, 0xd7, 0x0a, 0x18, 0xbd, 0x09, 0x92, 0xf9, 0xe2, 0x3f, 0x18, 0xf6, 0xfe, 0xf5, 0xf6, 
	0x18, 0x83, 0xe0, 0xfe, 0xfb, 0xc8, 0xe0, 0xcc, 0x2e, 0x27, 0x07, 0x40, 0x1f, 0xf4, 0xe0, 0x0e, 0x2d, 0xaf, 0xcb, 0x07, 
	0x1d, 0xe2, 0xed, 0x11, 0xf7, 0xeb, 0x1e, 0x32, 0x11, 0xe8, 0xce, 0x01, 0xe5, 0x8e, 0xaf, 0x3d, 0x08, 0xc6, 0xe9, 0xd1, 
	0x7f, 0x10, 0x09, 0xf5, 0x19, 0x08, 0xf1, 0xf2, 0xf1, 0x4e, 0x3a, 0xe6, 0xde, 0xfc, 0xf6, 0x4d, 0x5f, 0x43, 0x0a, 0x0b, 
	0x32, 0xf1, 0xc8, 0x05, 0xe4, 0x25, 0x17, 0xf5, 0xf7, 0x17, 0x05, 0x2e, 0x15, 0x3c, 0xf4, 0x05, 0x08, 0xdb, 0xba, 0xe2, 
	0xcc, 0x21, 0x04, 0x01, 0x06, 0x0f, 0xff, 0x0b, 0x29, 0xfd, 0xed, 0x17, 0x55, 0xeb, 0xe8, 0xdd, 0xd9, 0x14, 0xe4, 0x01, 
	0x2d, 0x0b, 0xdd, 0x16, 0xf6, 0x18, 0xd4, 0x04, 0x14, 0x03, 0xe3, 0x4b, 0xee, 0x08, 0xd6, 0x12, 0x54, 0x03, 0x1a, 0x81, 
	0x07, 0x26, 0xce, 0x1a, 0x09, 0x0b, 0xe9, 0x43, 0x19, 0xea, 0xd8, 0x0f, 0x0b, 0x39, 0x1b, 0x9e, 0x22, 0x4c, 0xe0, 0xf4, 
	0xbf, 0xf4, 0xcd, 0x98, 0xd5, 0x24, 0xe5, 0xf2, 0xc1, 0x19, 0x15, 0xc4, 0x2b, 0x3b, 0x15, 0xb5, 0x97, 0x1f, 0xa8, 0x5b, 
	0xd1, 0x26, 0xf0, 0xec, 0x2d, 0x20, 0x30, 0xd5, 0xdf, 0x97, 0x04, 0xec, 0x1d, 0x07, 0xea, 0x19, 0x31, 0xc2, 0x08, 0xe7, 
	0xba, 0xed, 0x07, 0x1c, 0x12, 0x81, 0xfc, 0x0f, 0xf8, 0xfd, 0xf0, 0x03, 0x25, 0x07, 0x27, 0x29, 0xaa, 0x1c, 0x1d, 0xeb, 
	0x30, 0xa0, 0x01, 0x1c, 0xe3, 0xf0, 0xe8, 0xe5, 0x13, 0x4e, 0x53, 0xfd, 0xc1, 0x4a, 0x2c, 0x4f, 0x2c, 0xde, 0x3a, 0x23, 
	0x33, 0xb6, 0xf6, 0xb8, 0x87, 0x65, 0xd7, 0x5e, 0xd7, 0x24, 0xfb, 0xf3, 0x31, 0x03, 0x0c, 0x4f, 0x3c, 0x9c, 0xeb, 0xcf, 
	0xce, 0xcf, 0xd2, 0x3b, 0x0f, 0xde, 0x08, 0xbf, 0xfb, 0x0c, 0x1b, 0x34, 0x2f, 0xf9, 0x05, 0xea, 0x07, 0xb6, 0xd0, 0x4b, 
	0x00, 0xee, 0x19, 0x81, 0xc2, 0xf3, 0x20, 0x0c, 0x11, 0x1d, 0xd6, 0xf3, 0x3c, 0x9e, 0x31, 0x14, 0xf0, 0xff, 0x2e, 0xce, 
	0x9e, 0xcb, 0x30, 0xe4, 0xd8, 0xea, 0xa6, 0xce, 0x01, 0x8a, 0x63, 0x24, 0xbb, 0xd8, 0xea, 0xf3, 0x1c, 0xb4, 0xfd, 0x27, 
	0x24, 0xf6, 0xf9, 0x1d, 0xc9, 0xdc, 0xdf, 0x42, 0x3d, 0x09, 0x17, 0xa6, 0x03, 0xd0, 0xe1, 0xff, 0xe6, 0x10, 0x08, 0x4a, 
	0x05, 0x16, 0x04, 0x13, 0x4f, 0x25, 0x7f, 0x9c, 0xf6, 0xa8, 0xe0, 0xec, 0xd6, 0xee, 0xe8, 0x18, 0x25, 0x4a, 0x31, 0xf7, 
	0x16, 0x10, 0x58, 0xcb, 0xea, 0x94, 0x0a, 0xf4, 0x19, 0x0c, 0x40, 0x10, 0x14, 0xf9, 0x7a, 0x00, 0xfd, 0x04, 0x71, 0xe6, 
	0x15, 0x07, 0xf5, 0x1f, 0x1a, 0xeb, 0x19, 0xd9, 0x17, 0xfd, 0xff, 0x40, 0xf8, 0xe4, 0xe9, 0x52, 0xfd, 0xb7, 0xe8, 0xe9, 
	0xf0, 0x30, 0xfe, 0x38, 0x16, 0xc8, 0x57, 0xf8, 0x1c, 0x1b, 0x42, 0x75, 0xfe, 0xb5, 0xda, 0xe5, 0xeb, 0x07, 0x09, 0x32, 
	0xdb, 0xbd, 0x05, 0xe4, 0x23, 0x05, 0x32, 0x54, 0xf3, 0xc2, 0xe5, 0x09, 0x0e, 0x1e, 0x13, 0x1a, 0xce, 0x0c, 0x14, 0xea, 
	0x19, 0xfd, 0x2c, 0x7f, 0x2f, 0x08, 0xfe, 0x25, 0x05, 0xbb, 0x03, 0xc1, 0xf5, 0xd1, 0xd9, 0x16, 0xfc, 0xc3, 0xe1, 0xe5, 
	0x2a, 0xf3, 0x2c, 0x3d, 0x1f, 0xcf, 0x1e, 0xb5, 0x07, 0xc6, 0xe3, 0x16, 0x18, 0xed, 0xcd, 0xba, 0x43, 0xfc, 0xdb, 0x31, 
	0xf3, 0x1b, 0x1a, 0xcd, 0xf6, 0xd3, 0xff, 0x04, 0xf4, 0xf3, 0xbf, 0xdd, 0x0b, 0x0c, 0x1a, 0x02, 0xbd, 0x21, 0xc1, 0xd4, 
	0x42, 0xcd, 0x7f, 0x14, 0xd8, 0xe3, 0xcb, 0x15, 0x0e, 0x9e, 0x06, 0xfb, 0x04, 0xdf, 0xf8, 0x0b, 0xf6, 0xde, 0xd0, 0x3c, 
	0x36, 0x04, 0x22, 0xbb, 0x13, 0xbd, 0xdd, 0x1d, 0x0c, 0xde, 0x0a, 0x44, 0xf7, 0x08, 0xe2, 0x33, 0x5b, 0x1c, 0x7f, 0xb0, 
	0xf4, 0xc0, 0xc9, 0x03, 0x04, 0xd4, 0xdf, 0x07, 0x20, 0xf6, 0x2d, 0xf2, 0x20, 0xf8, 0xf4, 0xbd, 0x15, 0xc1, 0xfb, 0xfe, 
	0xd3, 0x56, 0x0e, 0xfa, 0x41, 0xe9, 0x69, 0x00, 0x07, 0x47, 0x6d, 0xda, 0x32, 0xea, 0x13, 0xe2, 0x06, 0xf7, 0xe2, 0x07, 
	0x18, 0xe0, 0x16, 0xfb, 0x2c, 0xdf, 0x24, 0xee, 0x58, 0x58, 0x3a, 0xd8, 0x10, 0xfe, 0x9e, 0x11, 0x28, 0x19, 0x0a, 0xee, 
	0x04, 0xf3, 0x00, 0x18, 0x34, 0x3a, 0x3d, 0x9b, 0x29, 0x23, 0x81, 0x3e, 0x0c, 0x24, 0xea, 0x02, 0x08, 0xe7, 0x52, 0x0b, 
	0x24, 0x1f, 0x31, 0xd8, 0x79, 0xf1, 0x8e, 0xed, 0x00, 0x1f, 0xd1, 0x10, 0xfe, 0xc3, 0xfe, 0xfc, 0x17, 0x65, 0xf0, 0x22, 
	0xf2, 0x0f, 0xe3, 0x97, 0x1c, 0x18, 0xe0, 0x41, 0xe0, 0xff, 0xb4, 0x51, 0xfc, 0x30, 0xf1, 0x09, 0xf3, 0x4a, 0xf8, 0xef, 
	0x25, 0xfc, 0x63, 0xdb, 0xe5, 0x59, 0xd3, 0x52, 0x00, 0x0e, 0xed, 0x22, 0xe8, 0x5b, 0x1d, 0x03, 0xf7, 0xf3, 0x0d, 0xbb, 
	0x0b, 0x34, 0xd4, 0x72, 0xf1, 0xf1, 0xe0, 0x1b, 0x08, 0x63, 0x2e, 0x7f, 0xfd, 0x09, 0xd4, 0xcf, 0x3a, 0x47, 0x4f, 0x75, 
	0x2a, 0xfc, 0xff, 0xff, 0x04, 0x00, 0x00, 0x00, 0x40, 0x00, 0x00, 0x00, 0x48, 0x1d, 0x00, 0x00, 0x41, 0x32, 0x00, 0x00, 
	0x1f, 0xeb, 0xff, 0xff, 0x3b, 0xe5, 0xff, 0xff, 0x40, 0xfa, 0xff, 0xff, 0x02, 0xfe, 0xff, 0xff, 0x78, 0xcf, 0xff, 0xff, 
	0x46, 0xf8, 0xff, 0xff, 0x26, 0x17, 0x00, 0x00, 0xf9, 0x19, 0x00, 0x00, 0x0e, 0x22, 0x00, 0x00, 0xd4, 0xf4, 0xff, 0xff, 
	0xde, 0xf6, 0xff, 0xff, 0x61, 0xc9, 0xff, 0xff, 0xd1, 0xda, 0xff, 0xff, 0x74, 0x15, 0x00, 0x00, 0x76, 0xfc, 0xff, 0xff, 
	0x04, 0x00, 0x00, 0x00, 0x00, 0x02, 0x00, 0x00, 0x04, 0x2b, 0x09, 0x81, 0x0c, 0x3e, 0xd5, 0xdc, 0xfc, 0xfd, 0xe7, 0x91, 
	0xf8, 0x07, 0xcd, 0xcd, 0xe5, 0x05, 0xf0, 0xb5, 0x25, 0x1d, 0xcd, 0xd4, 0xd5, 0xf0, 0x21, 0xbc, 0x1b, 0x0e, 0xdd, 0xb4, 
	0xae, 0xd3, 0x58, 0xa7, 0x98, 0x25, 0x30, 0xc2, 0x8d, 0xc0, 0x0d, 0x9c, 0x81, 0xfb, 0x0d, 0xc8, 0xe7, 0xd4, 0x2c, 0xb0, 
	0x99, 0xf2, 0xee, 0xea, 0xd2, 0xf7, 0x11, 0xc5, 0xb9, 0xf0, 0xc0, 0xe4, 0x3a, 0xec, 0x66, 0x13, 0x3e, 0xda, 0xff, 0xef, 
	0x47, 0x39, 0x4d, 0x89, 0x15, 0x2b, 0xdf, 0xb8, 0xb9, 0x11, 0xfa, 0xb4, 0x0c, 0xe2, 0xf0, 0xae, 0xf0, 0x55, 0x7f, 0x97, 
	0x09, 0xbb, 0xbe, 0xaf, 0xdb, 0x0c, 0xe3, 0xfb, 0x17, 0x46, 0x37, 0xf5, 0xcd, 0x50, 0x38, 0xcb, 0x3b, 0x1e, 0xee, 0xe1, 
	0xb5, 0x35, 0xfa, 0x84, 0x7f, 0xc3, 0x7c, 0xdb, 0xcd, 0xeb, 0xd4, 0x83, 0x3a, 0x41, 0x29, 0xe1, 0xd9, 0xe8, 0xe2, 0xd1, 
	0xf3, 0xec, 0xf3, 0xdf, 0xf9, 0x11, 0xf5, 0xaa, 0xe0, 0x2a, 0x00, 0xd6, 0xe9, 0xe4, 0xf5, 0xca, 0x12, 0x1a, 0x01, 0xde, 
	0xef, 0xe8, 0x7f, 0xf1, 0x27, 0x62, 0x32, 0x0f, 0x1b, 0x36, 0xad, 0xe9, 0x01, 0xc7, 0xd5, 0x43, 0x3a, 0x38, 0x8c, 0x24, 
	0x27, 0x09, 0xfa, 0x7f, 0x53, 0x22, 0x84, 0x26, 0xe5, 0xfb, 0xee, 0xba, 0xe5, 0x04, 0x9b, 0x6e, 0xee, 0x0a, 0x44, 0x0d, 
	0x68, 0x09, 0xd8, 0x7f, 0xf1, 0x38, 0x06, 0x53, 0xfb, 0x61, 0xf1, 0x48, 0xd1, 0x4c, 0x61, 0xda, 0xed, 0xff, 0xf4, 0xe1, 
	0xe9, 0x31, 0x37, 0xca, 0xa5, 0x1f, 0x31, 0x91, 0xf3, 0x55, 0xe4, 0xaa, 0x13, 0x1b, 0xd6, 0x7f, 0xe5, 0xf4, 0x33, 0x66, 
	0x12, 0xff, 0xd2, 0x0c, 0xf3, 0x02, 0x0e, 0x1f, 0xff, 0xea, 0xd0, 0x70, 0xff, 0x2a, 0x21, 0xe0, 0xf7, 0xd0, 0xcb, 0xcc, 
	0xf5, 0x07, 0x0b, 0x25, 0xc4, 0xc7, 0x0a, 0xc3, 0xb4, 0x2d, 0xfc, 0xee, 0xf6, 0xda, 0xca, 0xeb, 0xd0, 0x1d, 0xf5, 0xfa, 
	0xe4, 0xe9, 0xf3, 0xe8, 0xf0, 0xd5, 0xe2, 0x0c, 0x7f, 0xf6, 0xde, 0x16, 0xea, 0xbf, 0xc8, 0x7b, 0x02, 0xd9, 0xda, 0x81, 
	0x08, 0xd6, 0xd5, 0xba, 0xd4, 0xf9, 0xf7, 0x8e, 0x08, 0xe3, 0xf5, 0xae, 0x18, 0xc2, 0x39, 0xac, 0xf2, 0xe6, 0x12, 0xdc, 
	0xc7, 0xc8, 0x1b, 0xdc, 0xf0, 0xf6, 0x3c, 0x07, 0xf4, 0xd2, 0xca, 0xc8, 0x17, 0xeb, 0xf6, 0xe7, 0x08, 0xf4, 0xcb, 0xd8, 
	0x1f, 0xc4, 0xd8, 0x11, 0x7f, 0x24, 0xd6, 0xd8, 0x0c, 0xa4, 0xd3, 0xf0, 0xff, 0x18, 0xc3, 0xf0, 0xdc, 0xba, 0xe9, 0x09, 
	0x98, 0xbc, 0x4f, 0xda, 0x2d, 0x14, 0x11, 0xdc, 0x9d, 0x04, 0xfd, 0xf9, 0x2a, 0xf5, 0x7f, 0xe5, 0x9a, 0xea, 0x48, 0xf1, 
	0xfb, 0x04, 0x45, 0x07, 0xa7, 0xfb, 0x0f, 0xfb, 0xfc, 0x1f, 0x25, 0xf2, 0xff, 0xf8, 0xf3, 0x22, 0xff, 0xfc, 0x55, 0x37, 
	0xe6, 0xf4, 0xee, 0x30, 0xf2, 0x09, 0xdb, 0xfd, 0xe2, 0x0a, 0xe5, 0xe7, 0xed, 0x2e, 0x7f, 0xf9, 0xe0, 0xf6, 0xe3, 0xe5, 
	0xf9, 0xfa, 0x20, 0xf0, 0xeb, 0xf8, 0x24, 0x7f, 0x20, 0x01, 0x09, 0x1e, 0xed, 0x10, 0x00, 0xe6, 0x51, 0xf8, 0x1b, 0x4e, 
	0x0e, 0x1d, 0xe2, 0x2e, 0x1e, 0xf4, 0xf9, 0xfc, 0x52, 0x09, 0xd7, 0x38, 0x47, 0x14, 0xf3, 0xff, 0xce, 0xe4, 0x0d, 0x03, 
	0xf9, 0x06, 0x16, 0x02, 0xdc, 0xf4, 0x0c, 0x7f, 0x09, 0x2c, 0x14, 0xe1, 0xfb, 0xf9, 0x05, 0x15, 0xeb, 0xf6, 0x0b, 0x73, 
	0x1e, 0xf8, 0xec, 0x51, 0xf3, 0x28, 0xfb, 0x32, 0x70, 0x04, 0xdb, 0xb2, 0xf4, 0x81, 0xc1, 0x06, 0x37, 0xf3, 0xe5, 0xc1, 
	0xd1, 0x9b, 0xda, 0xd8, 0xc6, 0xed, 0xea, 0xe3, 0xf9, 0xc2, 0xeb, 0xf9, 0xe6, 0xdc, 0x1d, 0x14, 0xf4, 0x02, 0x5a, 0x39, 
	0x82, 0xfe, 0xff, 0xff, 0x04, 0x00, 0x00, 0x00, 0x20, 0x00, 0x00, 0x00, 0x79, 0xdf, 0xff, 0xff, 0xf9, 0xfb, 0xff, 0xff, 
	0x26, 0xec, 0xff, 0xff, 0x38, 0xdc, 0xff, 0xff, 0x63, 0xfd, 0xff, 0xff, 0x61, 0xe6, 0xff, 0xff, 0x79, 0xd1, 0xff, 0xff, 
	0x17, 0xe1, 0xff, 0xff, 0xae, 0xfe, 0xff, 0xff, 0x04, 0x00, 0x00, 0x00, 0x60, 0x00, 0x00, 0x00, 0x03, 0x04, 0xee, 0xdd, 
	0x05, 0x26, 0x1b, 0x3f, 0x4a, 0x81, 0x05, 0x1c, 0x7f, 0xd9, 0x04, 0x1d, 0xc5, 0xe9, 0x36, 0x53, 0xee, 0xd8, 0x0d, 0xe2, 
	0x66, 0xf0, 0x3f, 0x78, 0xc4, 0xe7, 0x7f, 0xbe, 0x09, 0x59, 0xf3, 0x45, 0x5b, 0x08, 0xb6, 0xa8, 0x61, 0x25, 0x0d, 0xa5, 
	0x43, 0x18, 0x7f, 0xf5, 0xda, 0x81, 0x9b, 0x16, 0x86, 0xfb, 0xb7, 0x5f, 0x38, 0x49, 0xdf, 0x48, 0xa3, 0x45, 0xcb, 0xee, 
	0xd4, 0x42, 0x98, 0x4f, 0x21, 0xa5, 0xff, 0x81, 0x2b, 0x13, 0x73, 0x2a, 0x1e, 0x15, 0x4c, 0xbd, 0x36, 0x05, 0x81, 0x14, 
	0x40, 0xe7, 0x00, 0xf5, 0x14, 0xe1, 0xc9, 0x43, 0x7f, 0xd1, 0xf5, 0x28, 0x1a, 0xff, 0xff, 0xff, 0x04, 0x00, 0x00, 0x00, 
	0x08, 0x00, 0x00, 0x00, 0x01, 0x00, 0x00, 0x00, 0x02, 0x00, 0x00, 0x00, 0xf8, 0xe7, 0xff, 0xff, 0xfc, 0xe7, 0xff, 0xff, 
	0x0f, 0x00, 0x00, 0x00, 0x4d, 0x4c, 0x49, 0x52, 0x20, 0x43, 0x6f, 0x6e, 0x76, 0x65, 0x72, 0x74, 0x65, 0x64, 0x2e, 0x00, 
	0x01, 0x00, 0x00, 0x00, 0x14, 0x00, 0x00, 0x00, 0x00, 0x00, 0x0e, 0x00, 0x18, 0x00, 0x14, 0x00, 0x10, 0x00, 0x0c, 0x00, 
	0x08, 0x00, 0x04, 0x00, 0x0e, 0x00, 0x00, 0x00, 0x14, 0x00, 0x00, 0x00, 0x1c, 0x00, 0x00, 0x00, 0x30, 0x03, 0x00, 0x00, 
	0x34, 0x03, 0x00, 0x00, 0x38, 0x03, 0x00, 0x00, 0x04, 0x00, 0x00, 0x00, 0x6d, 0x61, 0x69, 0x6e, 0x00, 0x00, 0x00, 0x00, 
	0x0c, 0x00, 0x00, 0x00, 0xf8, 0x02, 0x00, 0x00, 0x9c, 0x02, 0x00, 0x00, 0x38, 0x02, 0x00, 0x00, 0xf4, 0x01, 0x00, 0x00, 
	0xa4, 0x01, 0x00, 0x00, 0x60, 0x01, 0x00, 0x00, 0x20, 0x01, 0x00, 0x00, 0xec, 0x00, 0x00, 0x00, 0xa8, 0x00, 0x00, 0x00, 
	0x70, 0x00, 0x00, 0x00, 0x34, 0x00, 0x00, 0x00, 0x10, 0x00, 0x00, 0x00, 0x00, 0x00, 0x0a, 0x00, 0x10, 0x00, 0x0c, 0x00, 
	0x08, 0x00, 0x04, 0x00, 0x0a, 0x00, 0x00, 0x00, 0x0c, 0x00, 0x00, 0x00, 0x10, 0x00, 0x00, 0x00, 0x06, 0x00, 0x00, 0x00, 
	0x01, 0x00, 0x00, 0x00, 0x17, 0x00, 0x00, 0x00, 0x01, 0x00, 0x00, 0x00, 0x16, 0x00, 0x00, 0x00, 0xca, 0xfd, 0xff, 0xff, 
	0x1c, 0x00, 0x00, 0x00, 0x00, 0x00, 0x00, 0x09, 0x1c, 0x00, 0x00, 0x00, 0x20, 0x00, 0x00, 0x00, 0x05, 0x00, 0x00, 0x00, 
	0x00, 0x00, 0x06, 0x00, 0x08, 0x00, 0x04, 0x00, 0x06, 0x00, 0x00, 0x00, 0x00, 0x00, 0x80, 0x3f, 0x01, 0x00, 0x00, 0x00, 
	0x16, 0x00, 0x00, 0x00, 0x01, 0x00, 0x00, 0x00, 0x15, 0x00, 0x00, 0x00, 0x02, 0xfe, 0xff, 0xff, 0x14, 0x00, 0x00, 0x00, 
	0x00, 0x00, 0x00, 0x08, 0x10, 0x00, 0x00, 0x00, 0x14, 0x00, 0x00, 0x00, 0x04, 0x00, 0x00, 0x00, 0x00, 0xe9, 0xff, 0xff, 
	0x01, 0x00, 0x00, 0x00, 0x15, 0x00, 0x00, 0x00, 0x03, 0x00, 0x00, 0x00, 0x14, 0x00, 0x00, 0x00, 0x0a, 0x00, 0x00, 0x00, 
	0x0b, 0x00, 0x00, 0x00, 0x36, 0xfe, 0xff, 0xff, 0x1c, 0x00, 0x00, 0x00, 0x00, 0x00, 0x00, 0x08, 0x1c, 0x00, 0x00, 0x00, 
	0x20, 0x00, 0x00, 0x00, 0x04, 0x00, 0x00, 0x00, 0x00, 0x00, 0x06, 0x00, 0x08, 0x00, 0x07, 0x00, 0x06, 0x00, 0x00, 0x00, 
	0x00, 0x00, 0x00, 0x01, 0x01, 0x00, 0x00, 0x00, 0x14, 0x00, 0x00, 0x00, 0x03, 0x00, 0x00, 0x00, 0x13, 0x00, 0x00, 0x00, 
	0x08, 0x00, 0x00, 0x00, 0x09, 0x00, 0x00, 0x00, 0x76, 0xfe, 0xff, 0xff, 0x14, 0x00, 0x00, 0x00, 0x00, 0x00, 0x00, 0x1b, 
	0x10, 0x00, 0x00, 0x00, 0x14, 0x00, 0x00, 0x00, 0x03, 0x00, 0x00, 0x00, 0x74, 0xe9, 0xff, 0xff, 0x01, 0x00, 0x00, 0x00, 
	0x13, 0x00, 0x00, 0x00, 0x02, 0x00, 0x00, 0x00, 0x12, 0x00, 0x00, 0x00, 0x01, 0x00, 0x00, 0x00, 0xa6, 0xfe, 0xff, 0xff, 
	0x14, 0x00, 0x00, 0x00, 0x00, 0x00, 0x00, 0x05, 0x20, 0x00, 0x00, 0x00, 0x24, 0x00, 0x00, 0x00, 0x02, 0x00, 0x00, 0x00, 
	0x82, 0xff, 0xff, 0xff, 0x03, 0x00, 0x00, 0x00, 0x01, 0x00, 0x00, 0x00, 0x03, 0x00, 0x00, 0x00, 0x01, 0x00, 0x00, 0x00, 
	0x01, 0x00, 0x00, 0x00, 0x12, 0x00, 0x00, 0x00, 0x01, 0x00, 0x00, 0x00, 0x11, 0x00, 0x00, 0x00, 0xe2, 0xfe, 0xff, 0xff, 
	0x14, 0x00, 0x00, 0x00, 0x00, 0x00, 0x00, 0x01, 0x1c, 0x00, 0x00, 0x00, 0x20, 0x00, 0x00, 0x00, 0x01, 0x00, 0x00, 0x00, 
	0xd4, 0xfe, 0xff, 0xff, 0x00, 0x00, 0x00, 0x01, 0x01, 0x00, 0x00, 0x00, 0x01, 0x00, 0x00, 0x00, 0x01, 0x00, 0x00, 0x00, 
	0x11, 0x00, 0x00, 0x00, 0x03, 0x00, 0x00, 0x00, 0x10, 0x00, 0x00, 0x00, 0x06, 0x00, 0x00, 0x00, 0x07, 0x00, 0x00, 0x00, 
	0x22, 0xff, 0xff, 0xff, 0x24, 0x00, 0x00, 0x00, 0x00, 0x00, 0x00, 0x05, 0x30, 0x00, 0x00, 0x00, 0x34, 0x00, 0x00, 0x00, 
	0x02, 0x00, 0x00, 0x00, 0x00, 0x00, 0x0e, 0x00, 0x14, 0x00, 0x00, 0x00, 0x10, 0x00, 0x0c, 0x00, 0x08, 0x00, 0x04, 0x00, 
	0x0e, 0x00, 0x00, 0x00, 0x03, 0x00, 0x00, 0x00, 0x01, 0x00, 0x00, 0x00, 0x03, 0x00, 0x00, 0x00, 0x01, 0x00, 0x00, 0x00, 
	0x01, 0x00, 0x00, 0x00, 0x10, 0x00, 0x00, 0x00, 0x01, 0x00, 0x00, 0x00, 0x0f, 0x00, 0x00, 0x00, 0x6e, 0xff, 0xff, 0xff, 
	0x14, 0x00, 0x00, 0x00, 0x00, 0x00, 0x00, 0x01, 0x1c, 0x00, 0x00, 0x00, 0x20, 0x00, 0x00, 0x00, 0x01, 0x00, 0x00, 0x00, 
	0x60, 0xff, 0xff, 0xff, 0x00, 0x00, 0x00, 0x01, 0x01, 0x00, 0x00, 0x00, 0x01, 0x00, 0x00, 0x00, 0x01, 0x00, 0x00, 0x00, 
	0x0f, 0x00, 0x00, 0x00, 0x03, 0x00, 0x00, 0x00, 0x0e, 0x00, 0x00, 0x00, 0x04, 0x00, 0x00, 0x00, 0x05, 0x00, 0x00, 0x00, 
	0xae, 0xff, 0xff, 0xff, 0x24, 0x00, 0x00, 0x00, 0x00, 0x00, 0x00, 0x05, 0x34, 0x00, 0x00, 0x00, 0x38, 0x00, 0x00, 0x00, 
	0x02, 0x00, 0x00, 0x00, 0x00, 0x00, 0x0e, 0x00, 0x18, 0x00, 0x17, 0x00, 0x10, 0x00, 0x0c, 0x00, 0x08, 0x00, 0x04, 0x00, 
	0x0e, 0x00, 0x00, 0x00, 0x03, 0x00, 0x00, 0x00, 0x03, 0x00, 0x00, 0x00, 0x03, 0x00, 0x00, 0x00, 0x03, 0x00, 0x00, 0x00, 
	0x00, 0x00, 0x00, 0x01, 0x01, 0x00, 0x00, 0x00, 0x0e, 0x00, 0x00, 0x00, 0x01, 0x00, 0x00, 0x00, 0x0d, 0x00, 0x00, 0x00, 
	0x00, 0x00, 0x0e, 0x00, 0x18, 0x00, 0x14, 0x00, 0x10, 0x00, 0x0c, 0x00, 0x0b, 0x00, 0x04, 0x00, 0x0e, 0x00, 0x00, 0x00, 
	0x20, 0x00, 0x00, 0x00, 0x00, 0x00, 0x00, 0x01, 0x28, 0x00, 0x00, 0x00, 0x2c, 0x00, 0x00, 0x00, 0x01, 0x00, 0x00, 0x00, 
	0x0c, 0x00, 0x10, 0x00, 0x00, 0x00, 0x0c, 0x00, 0x08, 0x00, 0x07, 0x00, 0x0c, 0x00, 0x00, 0x00, 0x00, 0x00, 0x00, 0x01, 
	0x01, 0x00, 0x00, 0x00, 0x01, 0x00, 0x00, 0x00, 0x01, 0x00, 0x00, 0x00, 0x0d, 0x00, 0x00, 0x00, 0x03, 0x00, 0x00, 0x00, 
	0x0c, 0x00, 0x00, 0x00, 0x02, 0x00, 0x00, 0x00, 0x03, 0x00, 0x00, 0x00, 0x00, 0x00, 0x0a, 0x00, 0x0c, 0x00, 0x00, 0x00, 
	0x08, 0x00, 0x04, 0x00, 0x0a, 0x00, 0x00, 0x00, 0x08, 0x00, 0x00, 0x00, 0x0c, 0x00, 0x00, 0x00, 0x01, 0x00, 0x00, 0x00, 
	0x0c, 0x00, 0x00, 0x00, 0x01, 0x00, 0x00, 0x00, 0x00, 0x00, 0x00, 0x00, 0x01, 0x00, 0x00, 0x00, 0x17, 0x00, 0x00, 0x00, 
	0x01, 0x00, 0x00, 0x00, 0x00, 0x00, 0x00, 0x00, 0x18, 0x00, 0x00, 0x00, 0x58, 0x14, 0x00, 0x00, 0xd8, 0x13, 0x00, 0x00, 
	0xf0, 0x12, 0x00, 0x00, 0x98, 0x11, 0x00, 0x00, 0x6c, 0x10, 0x00, 0x00, 0xb0, 0x0e, 0x00, 0x00, 0xc4, 0x0c, 0x00, 0x00, 
	0x48, 0x0a, 0x00, 0x00, 0xdc, 0x09, 0x00, 0x00, 0x68, 0x09, 0x00, 0x00, 0xfc, 0x08, 0x00, 0x00, 0x88, 0x08, 0x00, 0x00, 
	0x0c, 0x08, 0x00, 0x00, 0xd0, 0x06, 0x00, 0x00, 0x3c, 0x06, 0x00, 0x00, 0x10, 0x05, 0x00, 0x00, 0x7c, 0x04, 0x00, 0x00, 
	0x48, 0x03, 0x00, 0x00, 0xb4, 0x02, 0x00, 0x00, 0x28, 0x02, 0x00, 0x00, 0x74, 0x01, 0x00, 0x00, 0xd8, 0x00, 0x00, 0x00, 
	0x5c, 0x00, 0x00, 0x00, 0x04, 0x00, 0x00, 0x00, 0x1c, 0xec, 0xff, 0xff, 0x14, 0x00, 0x00, 0x00, 0x1c, 0x00, 0x00, 0x00, 
	0x1c, 0x00, 0x00, 0x00, 0x18, 0x00, 0x00, 0x00, 0x34, 0x00, 0x00, 0x00, 0x02, 0x00, 0x00, 0x00, 0xff, 0xff, 0xff, 0xff, 
	0x04, 0x00, 0x00, 0x00, 0x00, 0xec, 0xff, 0xff, 0x19, 0x00, 0x00, 0x00, 0x53, 0x74, 0x61, 0x74, 0x65, 0x66, 0x75, 0x6c, 
	0x50, 0x61, 0x72, 0x74, 0x69, 0x74, 0x69, 0x6f, 0x6e, 0x65, 0x64, 0x43, 0x61, 0x6c, 0x6c, 0x3a, 0x30, 0x00, 0x00, 0x00, 
	0x02, 0x00, 0x00, 0x00, 0x01, 0x00, 0x00, 0x00, 0x04, 0x00, 0x00, 0x00, 0x8c, 0xf8, 0xff, 0xff, 0x18, 0x00, 0x00, 0x00, 
	0x20, 0x00, 0x00, 0x00, 0x40, 0x00, 0x00, 0x00, 0x17, 0x00, 0x00, 0x00, 0x00, 0x00, 0x00, 0x09, 0x54, 0x00, 0x00, 0x00, 
	0x02, 0x00, 0x00, 0x00, 0xff, 0xff, 0xff, 0xff, 0x04, 0x00, 0x00, 0x00, 0xcc, 0xed, 0xff, 0xff, 0x08, 0x00, 0x00, 0x00, 
	0x14, 0x00, 0x00, 0x00, 0x01, 0x00, 0x00, 0x00, 0x80, 0xff, 0xff, 0xff, 0xff, 0xff, 0xff, 0xff, 0x00, 0x00, 0x00, 0x00, 
	0x01, 0x00, 0x00, 0x00, 0x00, 0x00, 0x80, 0x3b, 0x1a, 0x00, 0x00, 0x00, 0x53, 0x74, 0x61, 0x74, 0x65, 0x66, 0x75, 0x6c, 
	0x50, 0x61, 0x72, 0x74, 0x69, 0x74, 0x69, 0x6f, 0x6e, 0x65, 0x64, 0x43, 0x61, 0x6c, 0x6c, 0x3a, 0x30, 0x31, 0x00, 0x00, 
	0x02, 0x00, 0x00, 0x00, 0x01, 0x00, 0x00, 0x00, 0x04, 0x00, 0x00, 0x00, 0x04, 0xf9, 0xff, 0xff, 0x18, 0x00, 0x00, 0x00, 
	0x20, 0x00, 0x00, 0x00, 0x40, 0x00, 0x00, 0x00, 0x16, 0x00, 0x00, 0x00, 0x00, 0x00, 0x00, 0x09, 0x74, 0x00, 0x00, 0x00, 
	0x02, 0x00, 0x00, 0x00, 0xff, 0xff, 0xff, 0xff, 0x04, 0x00, 0x00, 0x00, 0x44, 0xee, 0xff, 0xff, 0x08, 0x00, 0x00, 0x00, 
	0x14, 0x00, 0x00, 0x00, 0x01, 0x00, 0x00, 0x00, 0x06, 0x00, 0x00, 0x00, 0x00, 0x00, 0x00, 0x00, 0x00, 0x00, 0x00, 0x00, 
	0x01, 0x00, 0x00, 0x00, 0x13, 0xf9, 0x6d, 0x3e, 0x38, 0x00, 0x00, 0x00, 0x73, 0x65, 0x71, 0x75, 0x65, 0x6e, 0x74, 0x69, 
	0x61, 0x6c, 0x5f, 0x33, 0x2f, 0x64, 0x65, 0x6e, 0x73, 0x65, 0x5f, 0x37, 0x2f, 0x4d, 0x61, 0x74, 0x4d, 0x75, 0x6c, 0x3b, 
	0x73, 0x65, 0x71, 0x75, 0x65, 0x6e, 0x74, 0x69, 0x61, 0x6c, 0x5f, 0x33, 0x2f, 0x64, 0x65, 0x6e, 0x73, 0x65, 0x5f, 0x37, 
	0x2f, 0x42, 0x69, 0x61, 0x73, 0x41, 0x64, 0x64, 0x00, 0x00, 0x00, 0x00, 0x02, 0x00, 0x00, 0x00, 0x01, 0x00, 0x00, 0x00, 
	0x04, 0x00, 0x00, 0x00, 0x9c, 0xf9, 0xff, 0xff, 0x18, 0x00, 0x00, 0x00, 0x20, 0x00, 0x00, 0x00, 0x40, 0x00, 0x00, 0x00, 
	0x15, 0x00, 0x00, 0x00, 0x00, 0x00, 0x00, 0x09, 0x8c, 0x00, 0x00, 0x00, 0x02, 0x00, 0x00, 0x00, 0xff, 0xff, 0xff, 0xff, 
	0x10, 0x00, 0x00, 0x00, 0xdc, 0xee, 0xff, 0xff, 0x08, 0x00, 0x00, 0x00, 0x14, 0x00, 0x00, 0x00, 0x01, 0x00, 0x00, 0x00, 
	0x80, 0xff, 0xff, 0xff, 0xff, 0xff, 0xff, 0xff, 0x00, 0x00, 0x00, 0x00, 0x01, 0x00, 0x00, 0x00, 0xe7, 0x00, 0x0b, 0x3d, 
	0x52, 0x00, 0x00, 0x00, 0x73, 0x65, 0x71, 0x75, 0x65, 0x6e, 0x74, 0x69, 0x61, 0x6c, 0x5f, 0x33, 0x2f, 0x64, 0x65, 0x6e, 
	0x73, 0x65, 0x5f, 0x36, 0x2f, 0x4d, 0x61, 0x74, 0x4d, 0x75, 0x6c, 0x3b, 0x73, 0x65, 0x71, 0x75, 0x65, 0x6e, 0x74, 0x69, 
	0x61, 0x6c, 0x5f, 0x33, 0x2f, 0x64, 0x65, 0x6e, 0x73, 0x65, 0x5f, 0x36, 0x2f, 0x52, 0x65, 0x6c, 0x75, 0x3b, 0x73, 0x65, 
	0x71, 0x75, 0x65, 0x6e, 0x74, 0x69, 0x61, 0x6c, 0x5f, 0x33, 0x2f, 0x64, 0x65, 0x6e, 0x73, 0x65, 0x5f, 0x36, 0x2f, 0x42, 
	0x69, 0x61, 0x73, 0x41, 0x64, 0x64, 0x00, 0x00, 0x02, 0x00, 0x00, 0x00, 0x01, 0x00, 0x00, 0x00, 0x10, 0x00, 0x00, 0x00, 
	0x4c, 0xfa, 0xff, 0xff, 0x18, 0x00, 0x00, 0x00, 0x20, 0x00, 0x00, 0x00, 0x3c, 0x00, 0x00, 0x00, 0x14, 0x00, 0x00, 0x00, 
	0x00, 0x00, 0x00, 0x09, 0x64, 0x00, 0x00, 0x00, 0x02, 0x00, 0x00, 0x00, 0xff, 0xff, 0xff, 0xff, 0x20, 0x00, 0x00, 0x00, 
	0x8c, 0xef, 0xff, 0xff, 0x08, 0x00, 0x00, 0x00, 0x10, 0x00, 0x00, 0x00, 0x01, 0x00, 0x00, 0x00, 0x80, 0xff, 0xff, 0xff, 
	0xff, 0xff, 0xff, 0xff, 0x01, 0x00, 0x00, 0x00, 0x1a, 0x24, 0x86, 0x3c, 0x2c, 0x00, 0x00, 0x00, 0x73, 0x65, 0x71, 0x75, 
	0x65, 0x6e, 0x74, 0x69, 0x61, 0x6c, 0x5f, 0x33, 0x2f, 0x67, 0x6c, 0x6f, 0x62, 0x61, 0x6c, 0x5f, 0x61, 0x76, 0x65, 0x72, 
	0x61, 0x67, 0x65, 0x5f, 0x70, 0x6f, 0x6f, 0x6c, 0x69, 0x6e, 0x67, 0x32, 0x64, 0x5f, 0x33, 0x2f, 0x4d, 0x65, 0x61, 0x6e, 
	0x00, 0x00, 0x00, 0x00, 0x02, 0x00, 0x00, 0x00, 0x01, 0x00, 0x00, 0x00, 0x20, 0x00, 0x00, 0x00, 0xd4, 0xfa, 0xff, 0xff, 
	0x18, 0x00, 0x00, 0x00, 0x28, 0x00, 0x00, 0x00, 0x44, 0x00, 0x00, 0x00, 0x13, 0x00, 0x00, 0x00, 0x00, 0x00, 0x00, 0x09, 
	0x64, 0x00, 0x00, 0x00, 0x04, 0x00, 0x00, 0x00, 0xff, 0xff, 0xff, 0xff, 0x05, 0x00, 0x00, 0x00, 0x01, 0x00, 0x00, 0x00, 
	0x20, 0x00, 0x00, 0x00, 0x1c, 0xf0, 0xff, 0xff, 0x08, 0x00, 0x00, 0x00, 0x10, 0x00, 0x00, 0x00, 0x01, 0x00, 0x00, 0x00, 
	0x80, 0xff, 0xff, 0xff, 0xff, 0xff, 0xff, 0xff, 0x01, 0x00, 0x00, 0x00, 0xca, 0x74, 0xcd, 0x3c, 0x25, 0x00, 0x00, 0x00, 
	0x73, 0x65, 0x71, 0x75, 0x65, 0x6e, 0x74, 0x69, 0x61, 0x6c, 0x5f, 0x33, 0x2f, 0x6d, 0x61, 0x78, 0x5f, 0x70, 0x6f, 0x6f, 
	0x6c, 0x69, 0x6e, 0x67, 0x32, 0x64, 0x5f, 0x31, 0x30, 0x2f, 0x4d, 0x61, 0x78, 0x50, 0x6f, 0x6f, 0x6c, 0x00, 0x00, 0x00, 
	0x04, 0x00, 0x00, 0x00, 0x01, 0x00, 0x00, 0x00, 0x05, 0x00, 0x00, 0x00, 0x01, 0x00, 0x00, 0x00, 0x20, 0x00, 0x00, 0x00, 
	0x64, 0xfb, 0xff, 0xff, 0x18, 0x00, 0x00, 0x00, 0x28, 0x00, 0x00, 0x00, 0x48, 0x00, 0x00, 0x00, 0x12, 0x00, 0x00, 0x00, 
	0x00, 0x00, 0x00, 0x09, 0x04, 0x01, 0x00, 0x00, 0x04, 0x00, 0x00, 0x00, 0xff, 0xff, 0xff, 0xff, 0x0e, 0x00, 0x00, 0x00, 
	0x01, 0x00, 0x00, 0x00, 0x20, 0x00, 0x00, 0x00, 0xac, 0xf0, 0xff, 0xff, 0x08, 0x00, 0x00, 0x00, 0x14, 0x00, 0x00, 0x00, 
	0x01, 0x00, 0x00, 0x00, 0x80, 0xff, 0xff, 0xff, 0xff, 0xff, 0xff, 0xff, 0x00, 0x00, 0x00, 0x00, 0x01, 0x00, 0x00, 0x00, 
	0xca, 0x74, 0xcd, 0x3c, 0xc0, 0x00, 0x00, 0x00, 0x73, 0x65, 0x71, 0x75, 0x65, 0x6e, 0x74, 0x69, 0x61, 0x6c, 0x5f, 0x33, 
	0x2f, 0x61, 0x63, 0x74, 0x69, 0x76, 0x61, 0x74, 0x69, 0x6f, 0x6e, 0x5f, 0x31, 0x30, 0x2f, 0x52, 0x65, 0x6c, 0x75, 0x3b, 
	0x73, 0x65, 0x71, 0x75, 0x65, 0x6e, 0x74, 0x69, 0x61, 0x6c, 0x5f, 0x33, 0x2f, 0x62, 0x61, 0x74, 0x63, 0x68, 0x5f, 0x6e, 
	0x6f, 0x72, 0x6d, 0x61, 0x6c, 0x69, 0x7a, 0x61, 0x74, 0x69, 0x6f, 0x6e, 0x5f, 0x31, 0x30, 0x2f, 0x46, 0x75, 0x73, 0x65, 
	0x64, 0x42, 0x61, 0x74, 0x63, 0x68, 0x4e, 0x6f, 0x72, 0x6d, 0x56, 0x33, 0x3b, 0x73, 0x65, 0x71, 0x75, 0x65, 0x6e, 0x74, 
	0x69, 0x61, 0x6c, 0x5f, 0x33, 0x2f, 0x63, 0x6f, 0x6e, 0x76, 0x32, 0x64, 0x5f, 0x31, 0x30, 0x2f, 0x42, 0x69, 0x61, 0x73, 
	0x41, 0x64, 0x64, 0x2f, 0x52, 0x65, 0x61, 0x64, 0x56, 0x61, 0x72, 0x69, 0x61, 0x62, 0x6c, 0x65, 0x4f, 0x70, 0x3b, 0x73, 
	0x65, 0x71, 0x75, 0x65, 0x6e, 0x74, 0x69, 0x61, 0x6c, 0x5f, 0x33, 0x2f, 0x63, 0x6f, 0x6e, 0x76, 0x32, 0x64, 0x5f, 0x31, 
	0x30, 0x2f, 0x42, 0x69, 0x61, 0x73, 0x41, 0x64, 0x64, 0x3b, 0x73, 0x65, 0x71, 0x75, 0x65, 0x6e, 0x74, 0x69, 0x61, 0x6c, 
	0x5f, 0x33, 0x2f, 0x63, 0x6f, 0x6e, 0x76, 0x32, 0x64, 0x5f, 0x31, 0x30, 0x2f, 0x43, 0x6f, 0x6e, 0x76, 0x32, 0x44, 0x31, 
	0x00, 0x00, 0x00, 0x00, 0x04, 0x00, 0x00, 0x00, 0x01, 0x00, 0x00, 0x00, 0x0e, 0x00, 0x00, 0x00, 0x01, 0x00, 0x00, 0x00, 
	0x20, 0x00, 0x00, 0x00, 0x94, 0xfc, 0xff, 0xff, 0x18, 0x00, 0x00, 0x00, 0x28, 0x00, 0x00, 0x00, 0x44, 0x00, 0x00, 0x00, 
	0x11, 0x00, 0x00, 0x00, 0x00, 0x00, 0x00, 0x09, 0x64, 0x00, 0x00, 0x00, 0x04, 0x00, 0x00, 0x00, 0xff, 0xff, 0xff, 0xff, 
	0x0e, 0x00, 0x00, 0x00, 0x01, 0x00, 0x00, 0x00, 0x10, 0x00, 0x00, 0x00, 0xdc, 0xf1, 0xff, 0xff, 0x08, 0x00, 0x00, 0x00, 
	0x10, 0x00, 0x00, 0x00, 0x01, 0x00, 0x00, 0x00, 0x80, 0xff, 0xff, 0xff, 0xff, 0xff, 0xff, 0xff, 0x01, 0x00, 0x00, 0x00, 
	0xb1, 0x3e, 0x95, 0x3c, 0x24, 0x00, 0x00, 0x00, 0x73, 0x65, 0x71, 0x75, 0x65, 0x6e, 0x74, 0x69, 0x61, 0x6c, 0x5f, 0x33, 
	0x2f, 0x6d, 0x61, 0x78, 0x5f, 0x70, 0x6f, 0x6f, 0x6c, 0x69, 0x6e, 0x67, 0x32, 0x64, 0x5f, 0x39, 0x2f, 0x4d, 0x61, 0x78, 
	0x50, 0x6f, 0x6f, 0x6c, 0x00, 0x00, 0x00, 0x00, 0x04, 0x00, 0x00, 0x00, 0x01, 0x00, 0x00, 0x00, 0x0e, 0x00, 0x00, 0x00, 
	0x01, 0x00, 0x00, 0x00, 0x10, 0x00, 0x00, 0x00, 0x24, 0xfd, 0xff, 0xff, 0x18, 0x00, 0x00, 0x00, 0x28, 0x00, 0x00, 0x00, 
	0x48, 0x00, 0x00, 0x00, 0x10, 0x00, 0x00, 0x00, 0x00, 0x00, 0x00, 0x09, 0xfc, 0x00, 0x00, 0x00, 0x04, 0x00, 0x00, 0x00, 
	0xff, 0xff, 0xff, 0xff, 0x2a, 0x00, 0x00, 0x00, 0x01, 0x00, 0x00, 0x00, 0x10, 0x00, 0x00, 0x00, 0x6c, 0xf2, 0xff, 0xff, 
	0x08, 0x00, 0x00, 0x00, 0x14, 0x00, 0x00, 0x00, 0x01, 0x00, 0x00, 0x00, 0x80, 0xff, 0xff, 0xff, 0xff, 0xff, 0xff, 0xff, 
	0x00, 0x00, 0x00, 0x00, 0x01, 0x00, 0x00, 0x00, 0xb1, 0x3e, 0x95, 0x3c, 0xbb, 0x00, 0x00, 0x00, 0x73, 0x65, 0x71, 0x75, 
	0x65, 0x6e, 0x74, 0x69, 0x61, 0x6c, 0x5f, 0x33, 0x2f, 0x61, 0x63, 0x74, 0x69, 0x76, 0x61, 0x74, 0x69, 0x6f, 0x6e, 0x5f, 
	0x39, 0x2f, 0x52, 0x65, 0x6c, 0x75, 0x3b, 0x73, 0x65, 0x71, 0x75, 0x65, 0x6e, 0x74, 0x69, 0x61, 0x6c, 0x5f, 0x33, 0x2f, 
	0x62, 0x61, 0x74, 0x63, 0x68, 0x5f, 0x6e, 0x6f, 0x72, 0x6d, 0x61, 0x6c, 0x69, 0x7a, 0x61, 0x74, 0x69, 0x6f, 0x6e, 0x5f, 
	0x39, 0x2f, 0x46, 0x75, 0x73, 0x65, 0x64, 0x42, 0x61, 0x74, 0x63, 0x68, 0x4e, 0x6f, 0x72, 0x6d, 0x56, 0x33, 0x3b, 0x73, 
	0x65, 0x71, 0x75, 0x65, 0x6e, 0x74, 0x69, 0x61, 0x6c, 0x5f, 0x33, 0x2f, 0x63, 0x6f, 0x6e, 0x76, 0x32, 0x64, 0x5f, 0x39, 
	0x2f, 0x42, 0x69, 0x61, 0x73, 0x41, 0x64, 0x64, 0x2f, 0x52, 0x65, 0x61, 0x64, 0x56, 0x61, 0x72, 0x69, 0x61, 0x62, 0x6c, 
	0x65, 0x4f, 0x70, 0x3b, 0x73, 0x65, 0x71, 0x75, 0x65, 0x6e, 0x74, 0x69, 0x61, 0x6c, 0x5f, 0x33, 0x2f, 0x63, 0x6f, 0x6e, 
	0x76, 0x32, 0x64, 0x5f, 0x39, 0x2f, 0x42, 0x69, 0x61, 0x73, 0x41, 0x64, 0x64, 0x3b, 0x73, 0x65, 0x71, 0x75, 0x65, 0x6e, 
	0x74, 0x69, 0x61, 0x6c, 0x5f, 0x33, 0x2f, 0x63, 0x6f, 0x6e, 0x76, 0x32, 0x64, 0x5f, 0x39, 0x2f, 0x43, 0x6f, 0x6e, 0x76, 
	0x32, 0x44, 0x31, 0x00, 0x04, 0x00, 0x00, 0x00, 0x01, 0x00, 0x00, 0x00, 0x2a, 0x00, 0x00, 0x00, 0x01, 0x00, 0x00, 0x00, 
	0x10, 0x00, 0x00, 0x00, 0x4c, 0xfe, 0xff, 0xff, 0x18, 0x00, 0x00, 0x00, 0x28, 0x00, 0x00, 0x00, 0x44, 0x00, 0x00, 0x00, 
	0x0f, 0x00, 0x00, 0x00, 0x00, 0x00, 0x00, 0x09, 0x64, 0x00, 0x00, 0x00, 0x04, 0x00, 0x00, 0x00, 0xff, 0xff, 0xff, 0xff, 
	0x2a, 0x00, 0x00, 0x00, 0x01, 0x00, 0x00, 0x00, 0x08, 0x00, 0x00, 0x00, 0x94, 0xf3, 0xff, 0xff, 0x08, 0x00, 0x00, 0x00, 
	0x10, 0x00, 0x00, 0x00, 0x01, 0x00, 0x00, 0x00, 0x80, 0xff, 0xff, 0xff, 0xff, 0xff, 0xff, 0xff, 0x01, 0x00, 0x00, 0x00, 
	0x4c, 0xe1, 0x70, 0x3c, 0x24, 0x00, 0x00, 0x00, 0x73, 0x65, 0x71, 0x75, 0x65, 0x6e, 0x74, 0x69, 0x61, 0x6c, 0x5f, 0x33, 
	0x2f, 0x6d, 0x61, 0x78, 0x5f, 0x70, 0x6f, 0x6f, 0x6c, 0x69, 0x6e, 0x67, 0x32, 0x64, 0x5f, 0x38, 0x2f, 0x4d, 0x61, 0x78, 
	0x50, 0x6f, 0x6f, 0x6c, 0x00, 0x00, 0x00, 0x00, 0x04, 0x00, 0x00, 0x00, 0x01, 0x00, 0x00, 0x00, 0x2a, 0x00, 0x00, 0x00, 
	0x01, 0x00, 0x00, 0x00, 0x08, 0x00, 0x00, 0x00, 0xdc, 0xfe, 0xff, 0xff, 0x18, 0x00, 0x00, 0x00, 0x28, 0x00, 0x00, 0x00, 
	0x44, 0x00, 0x00, 0x00, 0x0e, 0x00, 0x00, 0x00, 0x00, 0x00, 0x00, 0x09, 0xf8, 0x00, 0x00, 0x00, 0x04, 0x00, 0x00, 0x00, 
	0xff, 0xff, 0xff, 0xff, 0x80, 0x00, 0x00, 0x00, 0x03, 0x00, 0x00, 0x00, 0x08, 0x00, 0x00, 0x00, 0x24, 0xf4, 0xff, 0xff, 
	0x08, 0x00, 0x00, 0x00, 0x10, 0x00, 0x00, 0x00, 0x01, 0x00, 0x00, 0x00, 0x80, 0xff, 0xff, 0xff, 0xff, 0xff, 0xff, 0xff, 
	0x01, 0x00, 0x00, 0x00, 0x4c, 0xe1, 0x70, 0x3c, 0xbb, 0x00, 0x00, 0x00, 0x73, 0x65, 0x71, 0x75, 0x65, 0x6e, 0x74, 0x69, 
	0x61, 0x6c, 0x5f, 0x33, 0x2f, 0x61, 0x63, 0x74, 0x69, 0x76, 0x61, 0x74, 0x69, 0x6f, 0x6e, 0x5f, 0x38, 0x2f, 0x52, 0x65, 
	0x6c, 0x75, 0x3b, 0x73, 0x65, 0x71, 0x75, 0x65, 0x6e, 0x74, 0x69, 0x61, 0x6c, 0x5f, 0x33, 0x2f, 0x62, 0x61, 0x74, 0x63, 
	0x68, 0x5f, 0x6e, 0x6f, 0x72, 0x6d, 0x61, 0x6c, 0x69, 0x7a, 0x61, 0x74, 0x69, 0x6f, 0x6e, 0x5f, 0x38, 0x2f, 0x46, 0x75, 
	0x73, 0x65, 0x64, 0x42, 0x61, 0x74, 0x63, 0x68, 0x4e, 0x6f, 0x72, 0x6d, 0x56, 0x33, 0x3b, 0x73, 0x65, 0x71, 0x75, 0x65, 
	0x6e, 0x74, 0x69, 0x61, 0x6c, 0x5f, 0x33, 0x2f, 0x63, 0x6f, 0x6e, 0x76, 0x32, 0x64, 0x5f, 0x38, 0x2f, 0x42, 0x69, 0x61, 
	0x73, 0x41, 0x64, 0x64, 0x2f, 0x52, 0x65, 0x61, 0x64, 0x56, 0x61, 0x72, 0x69, 0x61, 0x62, 0x6c, 0x65, 0x4f, 0x70, 0x3b, 
	0x73, 0x65, 0x71, 0x75, 0x65, 0x6e, 0x74, 0x69, 0x61, 0x6c, 0x5f, 0x33, 0x2f, 0x63, 0x6f, 0x6e, 0x76, 0x32, 0x64, 0x5f, 
	0x38, 0x2f, 0x42, 0x69, 0x61, 0x73, 0x41, 0x64, 0x64, 0x3b, 0x73, 0x65, 0x71, 0x75, 0x65, 0x6e, 0x74, 0x69, 0x61, 0x6c, 
	0x5f, 0x33, 0x2f, 0x63, 0x6f, 0x6e, 0x76, 0x32, 0x64, 0x5f, 0x38, 0x2f, 0x43, 0x6f, 0x6e, 0x76, 0x32, 0x44, 0x31, 0x00, 
	0x04, 0x00, 0x00, 0x00, 0x01, 0x00, 0x00, 0x00, 0x80, 0x00, 0x00, 0x00, 0x03, 0x00, 0x00, 0x00, 0x08, 0x00, 0x00, 0x00, 
	0x14, 0x00, 0x1c, 0x00, 0x18, 0x00, 0x17, 0x00, 0x10, 0x00, 0x0c, 0x00, 0x08, 0x00, 0x00, 0x00, 0x00, 0x00, 0x04, 0x00, 
	0x14, 0x00, 0x00, 0x00, 0x18, 0x00, 0x00, 0x00, 0x28, 0x00, 0x00, 0x00, 0x44, 0x00, 0x00, 0x00, 0x0d, 0x00, 0x00, 0x00, 
	0x00, 0x00, 0x00, 0x09, 0x4c, 0x00, 0x00, 0x00, 0x04, 0x00, 0x00, 0x00, 0xff, 0xff, 0xff, 0xff, 0x80, 0x00, 0x00, 0x00, 
	0x03, 0x00, 0x00, 0x00, 0x01, 0x00, 0x00, 0x00, 0x5c, 0xf5, 0xff, 0xff, 0x08, 0x00, 0x00, 0x00, 0x10, 0x00, 0x00, 0x00, 
	0x01, 0x00, 0x00, 0x00, 0xf6, 0xff, 0xff, 0xff, 0xff, 0xff, 0xff, 0xff, 0x01, 0x00, 0x00, 0x00, 0x90, 0x8f, 0x6f, 0x41, 
	0x0c, 0x00, 0x00, 0x00, 0x74, 0x66, 0x6c, 0x2e, 0x71, 0x75, 0x61, 0x6e, 0x74, 0x69, 0x7a, 0x65, 0x00, 0x00, 0x00, 0x00, 
	0x04, 0x00, 0x00, 0x00, 0x01, 0x00, 0x00, 0x00, 0x80, 0x00, 0x00, 0x00, 0x03, 0x00, 0x00, 0x00, 0x01, 0x00, 0x00, 0x00, 
	0xe6, 0xf4, 0xff, 0xff, 0x14, 0x00, 0x00, 0x00, 0x30, 0x00, 0x00, 0x00, 0x0c, 0x00, 0x00, 0x00, 0x00, 0x00, 0x00, 0x02, 
	0x54, 0x00, 0x00, 0x00, 0xbc, 0xf5, 0xff, 0xff, 0x08, 0x00, 0x00, 0x00, 0x10, 0x00, 0x00, 0x00, 0x01, 0x00, 0x00, 0x00, 
	0x00, 0x00, 0x00, 0x00, 0x00, 0x00, 0x00, 0x00, 0x01, 0x00, 0x00, 0x00, 0x8d, 0xeb, 0xdd, 0x39, 0x2b, 0x00, 0x00, 0x00, 
	0x73, 0x65, 0x71, 0x75, 0x65, 0x6e, 0x74, 0x69, 0x61, 0x6c, 0x5f, 0x33, 0x2f, 0x64, 0x65, 0x6e, 0x73, 0x65, 0x5f, 0x37, 
	0x2f, 0x42, 0x69, 0x61, 0x73, 0x41, 0x64, 0x64, 0x2f, 0x52, 0x65, 0x61, 0x64, 0x56, 0x61, 0x72, 0x69, 0x61, 0x62, 0x6c, 
	0x65, 0x4f, 0x70, 0x00, 0x01, 0x00, 0x00, 0x00, 0x04, 0x00, 0x00, 0x00, 0x56, 0xf5, 0xff, 0xff, 0x14, 0x00, 0x00, 0x00, 
	0x34, 0x00, 0x00, 0x00, 0x0b, 0x00, 0x00, 0x00, 0x00, 0x00, 0x00, 0x09, 0x48, 0x00, 0x00, 0x00, 0x2c, 0xf6, 0xff, 0xff, 
	0x08, 0x00, 0x00, 0x00, 0x14, 0x00, 0x00, 0x00, 0x01, 0x00, 0x00, 0x00, 0x00, 0x00, 0x00, 0x00, 0x00, 0x00, 0x00, 0x00, 
	0x00, 0x00, 0x00, 0x00, 0x01, 0x00, 0x00, 0x00, 0x59, 0x5a, 0x4c, 0x3c, 0x1b, 0x00, 0x00, 0x00, 0x73, 0x65, 0x71, 0x75, 
	0x65, 0x6e, 0x74, 0x69, 0x61, 0x6c, 0x5f, 0x33, 0x2f, 0x64, 0x65, 0x6e, 0x73, 0x65, 0x5f, 0x37, 0x2f, 0x4d, 0x61, 0x74, 
	0x4d, 0x75, 0x6c, 0x00, 0x02, 0x00, 0x00, 0x00, 0x04, 0x00, 0x00, 0x00, 0x10, 0x00, 0x00, 0x00, 0xbe, 0xf5, 0xff, 0xff, 
	0x14, 0x00, 0x00, 0x00, 0x30, 0x00, 0x00, 0x00, 0x0a, 0x00, 0x00, 0x00, 0x00, 0x00, 0x00, 0x02, 0x54, 0x00, 0x00, 0x00, 
	0x94, 0xf6, 0xff, 0xff, 0x08, 0x00, 0x00, 0x00, 0x10, 0x00, 0x00, 0x00, 0x01, 0x00, 0x00, 0x00, 0x00, 0x00, 0x00, 0x00, 
	0x00, 0x00, 0x00, 0x00, 0x01, 0x00, 0x00, 0x00, 0x98, 0xc3, 0x2d, 0x39, 0x2b, 0x00, 0x00, 0x00, 0x73, 0x65, 0x71, 0x75, 
	0x65, 0x6e, 0x74, 0x69, 0x61, 0x6c, 0x5f, 0x33, 0x2f, 0x64, 0x65, 0x6e, 0x73, 0x65, 0x5f, 0x36, 0x2f, 0x42, 0x69, 0x61, 
	0x73, 0x41, 0x64, 0x64, 0x2f, 0x52, 0x65, 0x61, 0x64, 0x56, 0x61, 0x72, 0x69, 0x61, 0x62, 0x6c, 0x65, 0x4f, 0x70, 0x00, 
	0x01, 0x00, 0x00, 0x00, 0x10, 0x00, 0x00, 0x00, 0x2e, 0xf6, 0xff, 0xff, 0x14, 0x00, 0x00, 0x00, 0x34, 0x00, 0x00, 0x00, 
	0x09, 0x00, 0x00, 0x00, 0x00, 0x00, 0x00, 0x09, 0x48, 0x00, 0x00, 0x00, 0x04, 0xf7, 0xff, 0xff, 0x08, 0x00, 0x00, 0x00, 
	0x14, 0x00, 0x00, 0x00, 0x01, 0x00, 0x00, 0x00, 0x00, 0x00, 0x00, 0x00, 0x00, 0x00, 0x00, 0x00, 0x00, 0x00, 0x00, 0x00, 
	0x01, 0x00, 0x00, 0x00, 0x1f, 0xcf, 0x25, 0x3c, 0x1b, 0x00, 0x00, 0x00, 0x73, 0x65, 0x71, 0x75, 0x65, 0x6e, 0x74, 0x69, 
	0x61, 0x6c, 0x5f, 0x33, 0x2f, 0x64, 0x65, 0x6e, 0x73, 0x65, 0x5f, 0x36, 0x2f, 0x4d, 0x61, 0x74, 0x4d, 0x75, 0x6c, 0x00, 
	0x02, 0x00, 0x00, 0x00, 0x10, 0x00, 0x00, 0x00, 0x20, 0x00, 0x00, 0x00, 0x96, 0xf6, 0xff, 0xff, 0x14, 0x00, 0x00, 0x00, 
	0xa4, 0x01, 0x00, 0x00, 0x08, 0x00, 0x00, 0x00, 0x00, 0x00, 0x00, 0x02, 0x5c, 0x02, 0x00, 0x00, 0x6c, 0xf7, 0xff, 0xff, 
	0x08, 0x00, 0x00, 0x00, 0x08, 0x01, 0x00, 0x00, 0x20, 0x00, 0x00, 0x00, 0x00, 0x00, 0x00, 0x00, 0x00, 0x00, 0x00, 0x00, 
	0x00, 0x00, 0x00, 0x00, 0x00, 0x00, 0x00, 0x00, 0x00, 0x00, 0x00, 0x00, 0x00, 0x00, 0x00, 0x00, 0x00, 0x00, 0x00, 0x00, 
	0x00, 0x00, 0x00, 0x00, 0x00, 0x00, 0x00, 0x00, 0x00, 0x00, 0x00, 0x00, 0x00, 0x00, 0x00, 0x00, 0x00, 0x00, 0x00, 0x00, 
	0x00, 0x00, 0x00, 0x00, 0x00, 0x00, 0x00, 0x00, 0x00, 0x00, 0x00, 0x00, 0x00, 0x00, 0x00, 0x00, 0x00, 0x00, 0x00, 0x00, 
	0x00, 0x00, 0x00, 0x00, 0x00, 0x00, 0x00, 0x00, 0x00, 0x00, 0x00, 0x00, 0x00, 0x00, 0x00, 0x00, 0x00, 0x00, 0x00, 0x00, 
	0x00, 0x00, 0x00, 0x00, 0x00, 0x00, 0x00, 0x00, 0x00, 0x00, 0x00, 0x00, 0x00, 0x00, 0x00, 0x00, 0x00, 0x00, 0x00, 0x00, 
	0x00, 0x00, 0x00, 0x00, 0x00, 0x00, 0x00, 0x00, 0x00, 0x00, 0x00, 0x00, 0x00, 0x00, 0x00, 0x00, 0x00, 0x00, 0x00, 0x00, 
	0x00, 0x00, 0x00, 0x00, 0x00, 0x00, 0x00, 0x00, 0x00, 0x00, 0x00, 0x00, 0x00, 0x00, 0x00, 0x00, 0x00, 0x00, 0x00, 0x00, 
	0x00, 0x00, 0x00, 0x00, 0x00, 0x00, 0x00, 0x00, 0x00, 0x00, 0x00, 0x00, 0x00, 0x00, 0x00, 0x00, 0x00, 0x00, 0x00, 0x00, 
	0x00, 0x00, 0x00, 0x00, 0x00, 0x00, 0x00, 0x00, 0x00, 0x00, 0x00, 0x00, 0x00, 0x00, 0x00, 0x00, 0x00, 0x00, 0x00, 0x00, 
	0x00, 0x00, 0x00, 0x00, 0x00, 0x00, 0x00, 0x00, 0x00, 0x00, 0x00, 0x00, 0x00, 0x00, 0x00, 0x00, 0x00, 0x00, 0x00, 0x00, 
	0x00, 0x00, 0x00, 0x00, 0x00, 0x00, 0x00, 0x00, 0x00, 0x00, 0x00, 0x00, 0x00, 0x00, 0x00, 0x00, 0x00, 0x00, 0x00, 0x00, 
	0x00, 0x00, 0x00, 0x00, 0x00, 0x00, 0x00, 0x00, 0x00, 0x00, 0x00, 0x00, 0x00, 0x00, 0x00, 0x00, 0x00, 0x00, 0x00, 0x00, 
	0x00, 0x00, 0x00, 0x00, 0x00, 0x00, 0x00, 0x00, 0x20, 0x00, 0x00, 0x00, 0x2b, 0x3f, 0x8d, 0x38, 0x21, 0x1c, 0x5d, 0x38, 
	0x8e, 0xa8, 0xcb, 0x38, 0x19, 0xfd, 0xd8, 0x38, 0x09, 0x4e, 0xea, 0x38, 0x83, 0x62, 0x9b, 0x38, 0x92, 0x45, 0xa4, 0x38, 
	0x43, 0x63, 0xf3, 0x38, 0x69, 0x21, 0xca, 0x38, 0x96, 0x5f, 0x70, 0x38, 0x47, 0x9f, 0xb5, 0x38, 0xcf, 0x34, 0xdb, 0x38, 
	0xa7, 0x3f, 0xe9, 0x38, 0xda, 0xe2, 0xce, 0x38, 0x45, 0x2f, 0xa3, 0x38, 0x3d, 0x9d, 0xbb, 0x38, 0xfc, 0xee, 0x02, 0x39, 
	0x0c, 0xb8, 0xcc, 0x38, 0x1b, 0x45, 0xaf, 0x38, 0xd1, 0x01, 0xed, 0x38, 0x84, 0xd3, 0xde, 0x38, 0xe7, 0x4a, 0xe9, 0x38, 
	0x83, 0xab, 0xda, 0x38, 0xae, 0x68, 0xf8, 0x38, 0xfd, 0x1d, 0xc0, 0x38, 0x18, 0x0d, 0xda, 0x38, 0xba, 0xf5, 0x8e, 0x38, 
	0x8d, 0xbe, 0xab, 0x38, 0x12, 0x2e, 0xa0, 0x38, 0xe5, 0x0b, 0x8c, 0x38, 0x5f, 0xb0, 0xe0, 0x38, 0xab, 0x63, 0xa5, 0x38, 
	0xbf, 0x00, 0x00, 0x00, 0x73, 0x65, 0x71, 0x75, 0x65, 0x6e, 0x74, 0x69, 0x61, 0x6c, 0x5f, 0x33, 0x2f, 0x61, 0x63, 0x74, 
	0x69, 0x76, 0x61, 0x74, 0x69, 0x6f, 0x6e, 0x5f, 0x31, 0x30, 0x2f, 0x52, 0x65, 0x6c, 0x75, 0x3b, 0x73, 0x65, 0x71, 0x75, 
	0x65, 0x6e, 0x74, 0x69, 0x61, 0x6c, 0x5f, 0x33, 0x2f, 0x62, 0x61, 0x74, 0x63, 0x68, 0x5f, 0x6e, 0x6f, 0x72, 0x6d, 0x61, 
	0x6c, 0x69, 0x7a, 0x61, 0x74, 0x69, 0x6f, 0x6e, 0x5f, 0x31, 0x30, 0x2f, 0x46, 0x75, 0x73, 0x65, 0x64, 0x42, 0x61, 0x74, 
	0x63, 0x68, 0x4e, 0x6f, 0x72, 0x6d, 0x56, 0x33, 0x3b, 0x73, 0x65, 0x71, 0x75, 0x65, 0x6e, 0x74, 0x69, 0x61, 0x6c, 0x5f, 
	0x33, 0x2f, 0x63, 0x6f, 0x6e, 0x76, 0x32, 0x64, 0x5f, 0x31, 0x30, 0x2f, 0x42, 0x69, 0x61, 0x73, 0x41, 0x64, 0x64, 0x2f, 
	0x52, 0x65, 0x61, 0x64, 0x56, 0x61, 0x72, 0x69, 0x61, 0x62, 0x6c, 0x65, 0x4f, 0x70, 0x3b, 0x73, 0x65, 0x71, 0x75, 0x65, 
	0x6e, 0x74, 0x69, 0x61, 0x6c, 0x5f, 0x33, 0x2f, 0x63, 0x6f, 0x6e, 0x76, 0x32, 0x64, 0x5f, 0x31, 0x30, 0x2f, 0x42, 0x69, 
	0x61, 0x73, 0x41, 0x64, 0x64, 0x3b, 0x73, 0x65, 0x71, 0x75, 0x65, 0x6e, 0x74, 0x69, 0x61, 0x6c, 0x5f, 0x33, 0x2f, 0x63, 
	0x6f, 0x6e, 0x76, 0x32, 0x64, 0x5f, 0x31, 0x30, 0x2f, 0x43, 0x6f, 0x6e, 0x76, 0x32, 0x44, 0x00, 0x01, 0x00, 0x00, 0x00, 
	0x20, 0x00, 0x00, 0x00, 0x0e, 0xf9, 0xff, 0xff, 0x14, 0x00, 0x00, 0x00, 0xa8, 0x01, 0x00, 0x00, 0x07, 0x00, 0x00, 0x00, 
	0x00, 0x00, 0x00, 0x09, 0xc0, 0x01, 0x00, 0x00, 0xe4, 0xf9, 0xff, 0xff, 0x08, 0x00, 0x00, 0x00, 0x0c, 0x01, 0x00, 0x00, 
	0x20, 0x00, 0x00, 0x00, 0x00, 0x00, 0x00, 0x00, 0x00, 0x00, 0x00, 0x00, 0x00, 0x00, 0x00, 0x00, 0x00, 0x00, 0x00, 0x00, 
	0x00, 0x00, 0x00, 0x00, 0x00, 0x00, 0x00, 0x00, 0x00, 0x00, 0x00, 0x00, 0x00, 0x00, 0x00, 0x00, 0x00, 0x00, 0x00, 0x00, 
	0x00, 0x00, 0x00, 0x00, 0x00, 0x00, 0x00, 0x00, 0x00, 0x00, 0x00, 0x00, 0x00, 0x00, 0x00, 0x00, 0x00, 0x00, 0x00, 0x00, 
	0x00, 0x00, 0x00, 0x00, 0x00, 0x00, 0x00, 0x00, 0x00, 0x00, 0x00, 0x00, 0x00, 0x00, 0x00, 0x00, 0x00, 0x00, 0x00, 0x00, 
	0x00, 0x00, 0x00, 0x00, 0x00, 0x00, 0x00, 0x00, 0x00, 0x00, 0x00, 0x00, 0x00, 0x00, 0x00, 0x00, 0x00, 0x00, 0x00, 0x00, 
	0x00, 0x00, 0x00, 0x00, 0x00, 0x00, 0x00, 0x00, 0x00, 0x00, 0x00, 0x00, 0x00, 0x00, 0x00, 0x00, 0x00, 0x00, 0x00, 0x00, 
	0x00, 0x00, 0x00, 0x00, 0x00, 0x00, 0x00, 0x00, 0x00, 0x00, 0x00, 0x00, 0x00, 0x00, 0x00, 0x00, 0x00, 0x00, 0x00, 0x00, 
	0x00, 0x00, 0x00, 0x00, 0x00, 0x00, 0x00, 0x00, 0x00, 0x00, 0x00, 0x00, 0x00, 0x00, 0x00, 0x00, 0x00, 0x00, 0x00, 0x00, 
	0x00, 0x00, 0x00, 0x00, 0x00, 0x00, 0x00, 0x00, 0x00, 0x00, 0x00, 0x00, 0x00, 0x00, 0x00, 0x00, 0x00, 0x00, 0x00, 0x00, 
	0x00, 0x00, 0x00, 0x00, 0x00, 0x00, 0x00, 0x00, 0x00, 0x00, 0x00, 0x00, 0x00, 0x00, 0x00, 0x00, 0x00, 0x00, 0x00, 0x00, 
	0x00, 0x00, 0x00, 0x00, 0x00, 0x00, 0x00, 0x00, 0x00, 0x00, 0x00, 0x00, 0x00, 0x00, 0x00, 0x00, 0x00, 0x00, 0x00, 0x00, 
	0x00, 0x00, 0x00, 0x00, 0x00, 0x00, 0x00, 0x00, 0x00, 0x00, 0x00, 0x00, 0x00, 0x00, 0x00, 0x00, 0x00, 0x00, 0x00, 0x00, 
	0x00, 0x00, 0x00, 0x00, 0x00, 0x00, 0x00, 0x00, 0x00, 0x00, 0x00, 0x00, 0x00, 0x00, 0x00, 0x00, 0x00, 0x00, 0x00, 0x00, 
	0x00, 0x00, 0x00, 0x00, 0x20, 0x00, 0x00, 0x00, 0xe1, 0x47, 0x72, 0x3b, 0x94, 0xa2, 0x3d, 0x3b, 0xf5, 0xaa, 0xae, 0x3b, 
	0xbb, 0x19, 0xba, 0x3b, 0xa4, 0xf3, 0xc8, 0x3b, 0x13, 0x44, 0x85, 0x3b, 0x47, 0xe3, 0x8c, 0x3b, 0xe0, 0xbd, 0xd0, 0x3b, 
	0x7e, 0x5b, 0xad, 0x3b, 0x0c, 0x28, 0x4e, 0x3b, 0xb6, 0xc4, 0x9b, 0x3b, 0xa0, 0x00, 0xbc, 0x3b, 0xbf, 0x0b, 0xc8, 0x3b, 
	0xa2, 0x6f, 0xb1, 0x3b, 0x98, 0xf4, 0x8b, 0x3b, 0x51, 0xe8, 0xa0, 0x3b, 0x2b, 0x97, 0xe0, 0x3b, 0xce, 0x93, 0xaf, 0x3b, 
	0x06, 0x52, 0x96, 0x3b, 0xf3, 0x44, 0xcb, 0x3b, 0x6b, 0x1b, 0xbf, 0x3b, 0x65, 0x15, 0xc8, 0x3b, 0xe0, 0x8a, 0xbb, 0x3b, 
	0x50, 0x0c, 0xd5, 0x3b, 0xf9, 0xc4, 0xa4, 0x3b, 0x02, 0x03, 0xbb, 0x3b, 0x23, 0x38, 0x75, 0x3b, 0xf3, 0x4b, 0x93, 0x3b, 
	0xe4, 0x60, 0x89, 0x3b, 0xd0, 0x38, 0x70, 0x3b, 0x65, 0xb4, 0xc0, 0x3b, 0xa7, 0xd8, 0x8d, 0x3b, 0x1d, 0x00, 0x00, 0x00, 
	0x73, 0x65, 0x71, 0x75, 0x65, 0x6e, 0x74, 0x69, 0x61, 0x6c, 0x5f, 0x33, 0x2f, 0x63, 0x6f, 0x6e, 0x76, 0x32, 0x64, 0x5f, 
	0x31, 0x30, 0x2f, 0x43, 0x6f, 0x6e, 0x76, 0x32, 0x44, 0x00, 0x00, 0x00, 0x04, 0x00, 0x00, 0x00, 0x20, 0x00, 0x00, 0x00, 
	0x04, 0x00, 0x00, 0x00, 0x01, 0x00, 0x00, 0x00, 0x10, 0x00, 0x00, 0x00, 0xf6, 0xfa, 0xff, 0xff, 0x14, 0x00, 0x00, 0x00, 
	0xe8, 0x00, 0x00, 0x00, 0x06, 0x00, 0x00, 0x00, 0x00, 0x00, 0x00, 0x02, 0x9c, 0x01, 0x00, 0x00, 0xcc, 0xfb, 0xff, 0xff, 
	0x08, 0x00, 0x00, 0x00, 0x8c, 0x00, 0x00, 0x00, 0x10, 0x00, 0x00, 0x00, 0x00, 0x00, 0x00, 0x00, 0x00, 0x00, 0x00, 0x00, 
	0x00, 0x00, 0x00, 0x00, 0x00, 0x00, 0x00, 0x00, 0x00, 0x00, 0x00, 0x00, 0x00, 0x00, 0x00, 0x00, 0x00, 0x00, 0x00, 0x00, 
	0x00, 0x00, 0x00, 0x00, 0x00, 0x00, 0x00, 0x00, 0x00, 0x00, 0x00, 0x00, 0x00, 0x00, 0x00, 0x00, 0x00, 0x00, 0x00, 0x00, 
	0x00, 0x00, 0x00, 0x00, 0x00, 0x00, 0x00, 0x00, 0x00, 0x00, 0x00, 0x00, 0x00, 0x00, 0x00, 0x00, 0x00, 0x00, 0x00, 0x00, 
	0x00, 0x00, 0x00, 0x00, 0x00, 0x00, 0x00, 0x00, 0x00, 0x00, 0x00, 0x00, 0x00, 0x00, 0x00, 0x00, 0x00, 0x00, 0x00, 0x00, 
	0x00, 0x00, 0x00, 0x00, 0x00, 0x00, 0x00, 0x00, 0x00, 0x00, 0x00, 0x00, 0x00, 0x00, 0x00, 0x00, 0x00, 0x00, 0x00, 0x00, 
	0x00, 0x00, 0x00, 0x00, 0x00, 0x00, 0x00, 0x00, 0x00, 0x00, 0x00, 0x00, 0x00, 0x00, 0x00, 0x00, 0x00, 0x00, 0x00, 0x00, 
	0x00, 0x00, 0x00, 0x00, 0x10, 0x00, 0x00, 0x00, 0x49, 0xd8, 0xbe, 0x38, 0xbb, 0x9d, 0x8d, 0x38, 0x93, 0x23, 0x37, 0x38, 
	0xb5, 0x1e, 0x63, 0x38, 0xc6, 0xef, 0xb2, 0x38, 0x29, 0xdb, 0x6a, 0x38, 0x28, 0x6b, 0xb4, 0x38, 0x1b, 0x6a, 0xa5, 0x38, 
	0xc4, 0xec, 0xdf, 0x38, 0x1d, 0xad, 0xd0, 0x38, 0x3c, 0x83, 0xd8, 0x38, 0xea, 0x52, 0xa4, 0x38, 0x9c, 0xa5, 0x27, 0x39, 
	0x5b, 0xaa, 0xe6, 0x38, 0x53, 0x24, 0xd8, 0x38, 0x0f, 0x4e, 0xda, 0x38, 0xba, 0x00, 0x00, 0x00, 0x73, 0x65, 0x71, 0x75, 
	0x65, 0x6e, 0x74, 0x69, 0x61, 0x6c, 0x5f, 0x33, 0x2f, 0x61, 0x63, 0x74, 0x69, 0x76, 0x61, 0x74, 0x69, 0x6f, 0x6e, 0x5f, 
	0x39, 0x2f, 0x52, 0x65, 0x6c, 0x75, 0x3b, 0x73, 0x65, 0x71, 0x75, 0x65, 0x6e, 0x74, 0x69, 0x61, 0x6c, 0x5f, 0x33, 0x2f, 
	0x62, 0x61, 0x74, 0x63, 0x68, 0x5f, 0x6e, 0x6f, 0x72, 0x6d, 0x61, 0x6c, 0x69, 0x7a, 0x61, 0x74, 0x69, 0x6f, 0x6e, 0x5f, 
	0x39, 0x2f, 0x46, 0x75, 0x73, 0x65, 0x64, 0x42, 0x61, 0x74, 0x63, 0x68, 0x4e, 0x6f, 0x72, 0x6d, 0x56, 0x33, 0x3b, 0x73, 
	0x65, 0x71, 0x75, 0x65, 0x6e, 0x74, 0x69, 0x61, 0x6c, 0x5f, 0x33, 0x2f, 0x63, 0x6f, 0x6e, 0x76, 0x32, 0x64, 0x5f, 0x39, 
	0x2f, 0x42, 0x69, 0x61, 0x73, 0x41, 0x64, 0x64, 0x2f, 0x52, 0x65, 0x61, 0x64, 0x56, 0x61, 0x72, 0x69, 0x61, 0x62, 0x6c, 
	0x65, 0x4f, 0x70, 0x3b, 0x73, 0x65, 0x71, 0x75, 0x65, 0x6e, 0x74, 0x69, 0x61, 0x6c, 0x5f, 0x33, 0x2f, 0x63, 0x6f, 0x6e, 
	0x76, 0x32, 0x64, 0x5f, 0x39, 0x2f, 0x42, 0x69, 0x61, 0x73, 0x41, 0x64, 0x64, 0x3b, 0x73, 0x65, 0x71, 0x75, 0x65, 0x6e, 
	0x74, 0x69, 0x61, 0x6c, 0x5f, 0x33, 0x2f, 0x63, 0x6f, 0x6e, 0x76, 0x32, 0x64, 0x5f, 0x39, 0x2f, 0x43, 0x6f, 0x6e, 0x76, 
	0x32, 0x44, 0x00, 0x00, 0x01, 0x00, 0x00, 0x00, 0x10, 0x00, 0x00, 0x00, 0xae, 0xfc, 0xff, 0xff, 0x14, 0x00, 0x00, 0x00, 
	0xe8, 0x00, 0x00, 0x00, 0x05, 0x00, 0x00, 0x00, 0x00, 0x00, 0x00, 0x09, 0x00, 0x01, 0x00, 0x00, 0x84, 0xfd, 0xff, 0xff, 
	0x08, 0x00, 0x00, 0x00, 0x8c, 0x00, 0x00, 0x00, 0x10, 0x00, 0x00, 0x00, 0x00, 0x00, 0x00, 0x00, 0x00, 0x00, 0x00, 0x00, 
	0x00, 0x00, 0x00, 0x00, 0x00, 0x00, 0x00, 0x00, 0x00, 0x00, 0x00, 0x00, 0x00, 0x00, 0x00, 0x00, 0x00, 0x00, 0x00, 0x00, 
	0x00, 0x00, 0x00, 0x00, 0x00, 0x00, 0x00, 0x00, 0x00, 0x00, 0x00, 0x00, 0x00, 0x00, 0x00, 0x00, 0x00, 0x00, 0x00, 0x00, 
	0x00, 0x00, 0x00, 0x00, 0x00, 0x00, 0x00, 0x00, 0x00, 0x00, 0x00, 0x00, 0x00, 0x00, 0x00, 0x00, 0x00, 0x00, 0x00, 0x00, 
	0x00, 0x00, 0x00, 0x00, 0x00, 0x00, 0x00, 0x00, 0x00, 0x00, 0x00, 0x00, 0x00, 0x00, 0x00, 0x00, 0x00, 0x00, 0x00, 0x00, 
	0x00, 0x00, 0x00, 0x00, 0x00, 0x00, 0x00, 0x00, 0x00, 0x00, 0x00, 0x00, 0x00, 0x00, 0x00, 0x00, 0x00, 0x00, 0x00, 0x00, 
	0x00, 0x00, 0x00, 0x00, 0x00, 0x00, 0x00, 0x00, 0x00, 0x00, 0x00, 0x00, 0x00, 0x00, 0x00, 0x00, 0x00, 0x00, 0x00, 0x00, 
	0x00, 0x00, 0x00, 0x00, 0x10, 0x00, 0x00, 0x00, 0xf9, 0xd2, 0xca, 0x3b, 0x5c, 0x81, 0x96, 0x3b, 0x6f, 0xa2, 0x42, 0x3b, 
	0x4d, 0x60, 0x71, 0x3b, 0x1b, 0x2b, 0xbe, 0x3b, 0x10, 0x99, 0x79, 0x3b, 0x4e, 0xbe, 0xbf, 0x3b, 0x27, 0xcc, 0xaf, 0x3b, 
	0x04, 0xfb, 0xed, 0x3b, 0x55, 0xc6, 0xdd, 0x3b, 0x61, 0x1a, 0xe6, 0x3b, 0x6f, 0xa3, 0xae, 0x3b, 0x87, 0x2b, 0x32, 0x3c, 
	0xec, 0x24, 0xf5, 0x3b, 0x82, 0xb5, 0xe5, 0x3b, 0x00, 0x02, 0xe8, 0x3b, 0x1c, 0x00, 0x00, 0x00, 0x73, 0x65, 0x71, 0x75, 
	0x65, 0x6e, 0x74, 0x69, 0x61, 0x6c, 0x5f, 0x33, 0x2f, 0x63, 0x6f, 0x6e, 0x76, 0x32, 0x64, 0x5f, 0x39, 0x2f, 0x43, 0x6f, 
	0x6e, 0x76, 0x32, 0x44, 0x00, 0x00, 0x00, 0x00, 0x04, 0x00, 0x00, 0x00, 0x10, 0x00, 0x00, 0x00, 0x04, 0x00, 0x00, 0x00, 
	0x01, 0x00, 0x00, 0x00, 0x08, 0x00, 0x00, 0x00, 0xd6, 0xfd, 0xff, 0xff, 0x14, 0x00, 0x00, 0x00, 0x84, 0x00, 0x00, 0x00, 
	0x04, 0x00, 0x00, 0x00, 0x00, 0x00, 0x00, 0x02, 0x38, 0x01, 0x00, 0x00, 0xac, 0xfe, 0xff, 0xff, 0x08, 0x00, 0x00, 0x00, 
	0x48, 0x00, 0x00, 0x00, 0x08, 0x00, 0x00, 0x00, 0x00, 0x00, 0x00, 0x00, 0x00, 0x00, 0x00, 0x00, 0x00, 0x00, 0x00, 0x00, 
	0x00, 0x00, 0x00, 0x00, 0x00, 0x00, 0x00, 0x00, 0x00, 0x00, 0x00, 0x00, 0x00, 0x00, 0x00, 0x00, 0x00, 0x00, 0x00, 0x00, 
	0x00, 0x00, 0x00, 0x00, 0x00, 0x00, 0x00, 0x00, 0x00, 0x00, 0x00, 0x00, 0x00, 0x00, 0x00, 0x00, 0x00, 0x00, 0x00, 0x00, 
	0x00, 0x00, 0x00, 0x00, 0x00, 0x00, 0x00, 0x00, 0x00, 0x00, 0x00, 0x00, 0x08, 0x00, 0x00, 0x00, 0xaa, 0x63, 0x2e, 0x39, 
	0xde, 0xd1, 0x3b, 0x39, 0xe1, 0xb0, 0xc0, 0x38, 0x96, 0xa1, 0x22, 0x39, 0xdb, 0x4f, 0xd1, 0x38, 0x7b, 0xf7, 0xdc, 0x38, 
	0xf5, 0xe8, 0x9f, 0x38, 0xbc, 0x86, 0x1d, 0x39, 0xba, 0x00, 0x00, 0x00, 0x73, 0x65, 0x71, 0x75, 0x65, 0x6e, 0x74, 0x69, 
	0x61, 0x6c, 0x5f, 0x33, 0x2f, 0x61, 0x63, 0x74, 0x69, 0x76, 0x61, 0x74, 0x69, 0x6f, 0x6e, 0x5f, 0x38, 0x2f, 0x52, 0x65, 
	0x6c, 0x75, 0x3b, 0x73, 0x65, 0x71, 0x75, 0x65, 0x6e, 0x74, 0x69, 0x61, 0x6c, 0x5f, 0x33, 0x2f, 0x62, 0x61, 0x74, 0x63, 
	0x68, 0x5f, 0x6e, 0x6f, 0x72, 0x6d, 0x61, 0x6c, 0x69, 0x7a, 0x61, 0x74, 0x69, 0x6f, 0x6e, 0x5f, 0x38, 0x2f, 0x46, 0x75, 
	0x73, 0x65, 0x64, 0x42, 0x61, 0x74, 0x63, 0x68, 0x4e, 0x6f, 0x72, 0x6d, 0x56, 0x33, 0x3b, 0x73, 0x65, 0x71, 0x75, 0x65, 
	0x6e, 0x74, 0x69, 0x61, 0x6c, 0x5f, 0x33, 0x2f, 0x63, 0x6f, 0x6e, 0x76, 0x32, 0x64, 0x5f, 0x38, 0x2f, 0x42, 0x69, 0x61, 
	0x73, 0x41, 0x64, 0x64, 0x2f, 0x52, 0x65, 0x61, 0x64, 0x56, 0x61, 0x72, 0x69, 0x61, 0x62, 0x6c, 0x65, 0x4f, 0x70, 0x3b, 
	0x73, 0x65, 0x71, 0x75, 0x65, 0x6e, 0x74, 0x69, 0x61, 0x6c, 0x5f, 0x33, 0x2f, 0x63, 0x6f, 0x6e, 0x76, 0x32, 0x64, 0x5f, 
	0x38, 0x2f, 0x42, 0x69, 0x61, 0x73, 0x41, 0x64, 0x64, 0x3b, 0x73, 0x65, 0x71, 0x75, 0x65, 0x6e, 0x74, 0x69, 0x61, 0x6c, 
	0x5f, 0x33, 0x2f, 0x63, 0x6f, 0x6e, 0x76, 0x32, 0x64, 0x5f, 0x38, 0x2f, 0x43, 0x6f, 0x6e, 0x76, 0x32, 0x44, 0x00, 0x00, 
	0x01, 0x00, 0x00, 0x00, 0x08, 0x00, 0x00, 0x00, 0x2a, 0xff, 0xff, 0xff, 0x20, 0x00, 0x00, 0x00, 0x94, 0x00, 0x00, 0x00, 
	0x03, 0x00, 0x00, 0x00, 0x00, 0x00, 0x00, 0x09, 0xac, 0x00, 0x00, 0x00, 0x0c, 0x00, 0x0c, 0x00, 0x00, 0x00, 0x00, 0x00, 
	0x08, 0x00, 0x04, 0x00, 0x0c, 0x00, 0x00, 0x00, 0x08, 0x00, 0x00, 0x00, 0x4c, 0x00, 0x00, 0x00, 0x08, 0x00, 0x00, 0x00, 
	0x00, 0x00, 0x00, 0x00, 0x00, 0x00, 0x00, 0x00, 0x00, 0x00, 0x00, 0x00, 0x00, 0x00, 0x00, 0x00, 0x00, 0x00, 0x00, 0x00, 
	0x00, 0x00, 0x00, 0x00, 0x00, 0x00, 0x00, 0x00, 0x00, 0x00, 0x00, 0x00, 0x00, 0x00, 0x00, 0x00, 0x00, 0x00, 0x00, 0x00, 
	0x00, 0x00, 0x00, 0x00, 0x00, 0x00, 0x00, 0x00, 0x00, 0x00, 0x00, 0x00, 0x00, 0x00, 0x00, 0x00, 0x00, 0x00, 0x00, 0x00, 
	0x00, 0x00, 0x00, 0x00, 0x00, 0x00, 0x00, 0x00, 0x08, 0x00, 0x00, 0x00, 0x37, 0x5b, 0x3a, 0x37, 0x5b, 0xb5, 0x48, 0x37, 
	0xf0, 0xe9, 0xcd, 0x36, 0x94, 0xca, 0x2d, 0x37, 0xe7, 0xac, 0xdf, 0x36, 0x45, 0x21, 0xec, 0x36, 0x25, 0xe2, 0xaa, 0x36, 
	0x0c, 0x56, 0x28, 0x37, 0x1c, 0x00, 0x00, 0x00, 0x73, 0x65, 0x71, 0x75, 0x65, 0x6e, 0x74, 0x69, 0x61, 0x6c, 0x5f, 0x33, 
	0x2f, 0x63, 0x6f, 0x6e, 0x76, 0x32, 0x64, 0x5f, 0x38, 0x2f, 0x43, 0x6f, 0x6e, 0x76, 0x32, 0x44, 0x00, 0x00, 0x00, 0x00, 
	0x04, 0x00, 0x00, 0x00, 0x08, 0x00, 0x00, 0x00, 0x04, 0x00, 0x00, 0x00, 0x03, 0x00, 0x00, 0x00, 0x01, 0x00, 0x00, 0x00, 
	0x00, 0x00, 0x0e, 0x00, 0x18, 0x00, 0x14, 0x00, 0x13, 0x00, 0x0c, 0x00, 0x08, 0x00, 0x04, 0x00, 0x0e, 0x00, 0x00, 0x00, 
	0x14, 0x00, 0x00, 0x00, 0x14, 0x00, 0x00, 0x00, 0x02, 0x00, 0x00, 0x00, 0x00, 0x00, 0x00, 0x02, 0x4c, 0x00, 0x00, 0x00, 
	0x70, 0xff, 0xff, 0xff, 0x3e, 0x00, 0x00, 0x00, 0x73, 0x65, 0x71, 0x75, 0x65, 0x6e, 0x74, 0x69, 0x61, 0x6c, 0x5f, 0x33, 
	0x2f, 0x67, 0x6c, 0x6f, 0x62, 0x61, 0x6c, 0x5f, 0x61, 0x76, 0x65, 0x72, 0x61, 0x67, 0x65, 0x5f, 0x70, 0x6f, 0x6f, 0x6c, 
	0x69, 0x6e, 0x67, 0x32, 0x64, 0x5f, 0x33, 0x2f, 0x4d, 0x65, 0x61, 0x6e, 0x2f, 0x72, 0x65, 0x64, 0x75, 0x63, 0x74, 0x69, 
	0x6f, 0x6e, 0x5f, 0x69, 0x6e, 0x64, 0x69, 0x63, 0x65, 0x73, 0x00, 0x00, 0x01, 0x00, 0x00, 0x00, 0x02, 0x00, 0x00, 0x00, 
	0x14, 0x00, 0x18, 0x00, 0x14, 0x00, 0x00, 0x00, 0x10, 0x00, 0x0c, 0x00, 0x08, 0x00, 0x00, 0x00, 0x00, 0x00, 0x04, 0x00, 
	0x14, 0x00, 0x00, 0x00, 0x14, 0x00, 0x00, 0x00, 0x28, 0x00, 0x00, 0x00, 0x28, 0x00, 0x00, 0x00, 0x01, 0x00, 0x00, 0x00, 
	0x48, 0x00, 0x00, 0x00, 0x04, 0x00, 0x00, 0x00, 0xff, 0xff, 0xff, 0xff, 0x80, 0x00, 0x00, 0x00, 0x03, 0x00, 0x00, 0x00, 
	0x01, 0x00, 0x00, 0x00, 0x04, 0x00, 0x04, 0x00, 0x04, 0x00, 0x00, 0x00, 0x20, 0x00, 0x00, 0x00, 0x73, 0x65, 0x72, 0x76, 
	0x69, 0x6e, 0x67, 0x5f, 0x64, 0x65, 0x66, 0x61, 0x75, 0x6c, 0x74, 0x5f, 0x63, 0x6f, 0x6e, 0x76, 0x32, 0x64, 0x5f, 0x38, 
	0x5f, 0x69, 0x6e, 0x70, 0x75, 0x74, 0x3a, 0x30, 0x00, 0x00, 0x00, 0x00, 0x04, 0x00, 0x00, 0x00, 0x01, 0x00, 0x00, 0x00, 
	0x80, 0x00, 0x00, 0x00, 0x03, 0x00, 0x00, 0x00, 0x01, 0x00, 0x00, 0x00, 0x07, 0x00, 0x00, 0x00, 0x94, 0x00, 0x00, 0x00, 
	0x74, 0x00, 0x00, 0x00, 0x54, 0x00, 0x00, 0x00, 0x40, 0x00, 0x00, 0x00, 0x2c, 0x00, 0x00, 0x00, 0x18, 0x00, 0x00, 0x00, 
	0x04, 0x00, 0x00, 0x00, 0xb0, 0xff, 0xff, 0xff, 0x06, 0x00, 0x00, 0x00, 0x02, 0x00, 0x00, 0x00, 0x00, 0x00, 0x00, 0x06, 
	0xc0, 0xff, 0xff, 0xff, 0x19, 0x00, 0x00, 0x00, 0x02, 0x00, 0x00, 0x00, 0x00, 0x00, 0x00, 0x19, 0xd0, 0xff, 0xff, 0xff, 
	0x09, 0x00, 0x00, 0x00, 0x04, 0x00, 0x00, 0x00, 0x00, 0x00, 0x00, 0x09, 0xe0, 0xff, 0xff, 0xff, 0x28, 0x00, 0x00, 0x00, 
	0x02, 0x00, 0x00, 0x00, 0x00, 0x00, 0x00, 0x28, 0xf0, 0xff, 0xff, 0xff, 0x11, 0x00, 0x00, 0x00, 0x02, 0x00, 0x00, 0x00, 
	0x00, 0x00, 0x00, 0x11, 0x0c, 0x00, 0x10, 0x00, 0x0f, 0x00, 0x00, 0x00, 0x08, 0x00, 0x04, 0x00, 0x0c, 0x00, 0x00, 0x00, 
	0x03, 0x00, 0x00, 0x00, 0x03, 0x00, 0x00, 0x00, 0x00, 0x00, 0x00, 0x03, 0x0c, 0x00, 0x0c, 0x00, 0x0b, 0x00, 0x00, 0x00, 
	0x00, 0x00, 0x04, 0x00, 0x0c, 0x00, 0x00, 0x00, 0x72, 0x00, 0x00, 0x00, 0x00, 0x00, 0x00, 0x72};


const uint8_t * GetModelPointer()
{
    return g_Model;
}

size_t GetModelLen()
{
    return sizeof(g_Model);
}

